#version: 0.2 - Trained by `huggingface/tokenizers`
Ġ d
Ã ©
e s
Ġ l
e n
o n
Ġ p
Ġd e
a n
Ġ s
Ġ c
r e
Ġ a
o u
e r
a i
q u
t i
en t
Ġ m
i s
a r
i n
l e
e t
u n
t e
Ġl a
u r
Ġ qu
Ġ Ã
Ġ t
Ġl e
Ġ f
o r
i l
Ġ n
ĠÃ ł
i t
Ġ et
ou r
Ġ v
Ġ un
Ġ en
o m
ti on
Ġ r
e l
Ã ¨
a l
u s
Ġ L
a s
Ġl es
Ġp r
Ġd es
es t
an t
m ent
on t
c e
an s
Ġ C
Ġ Ã©
Ġ b
Ġa u
c h
r i
Ġd u
ai t
a u
m e
ai s
Ġp ar
Ġ j
a t
n e
Ġ "
Ã© s
e u
o i
l i
v e
Ġ M
a tion
Ġd Ã©
Ġ g
Ġp our
Ġ S
s e
c i
a g
Ġ re
qu e
Ġqu e
s i
d i
Ġ 1
Ġ P
Ã© e
Ġd ans
Ġc om
d e
Ġun e
r es
t Ã©
Ġp l
Ġ est
r a
ou s
Ġ A
o l
Ġqu i
Ġc on
Ġc h
Ġp as
Ġs e
m p
t re
Ġ in
o s
Ġ D
Ġ 2
Ġs ur
i e
Ġ E
Ġ B
r o
Ġ h
Ġpr o
Ġ J
er s
Ġ (
Ã ª
Ġ I
a m
ai n
r an
Ġ e
el le
u i
Ġr Ã©
a c
f f
Ġ T
en d
p p
a b
ou v
l es
Ġpl us
Ã¨ re
Ġa v
ur s
Ġ il
Ġ o
ai re
i r
on s
Ġ F
ĠL e
Ã¨ s
Ġ R
p r
Ġn e
t er
ve c
a le
Ġs on
Ġc e
Ġd i
o is
. .
it Ã©
Ġ2 0
or t
Ġa vec
Ã© r
u l
Ġ N
i en
on n
ĠI l
u e
i g
an d
Ġt r
Ġ G
i er
p e
o t
Ġs a
oi r
u is
i c
ou t
t u
ĠL a
m b
ag e
il le
un e
u x
r Ã©
i d
g e
u t
et te
o in
Ġ an
Ġ V
t r
ch e
qu es
Ġj e
a v
Ġe x
Ã© es
eu x
Ġs ont
Ã© ri
a d
Ġ O
ĠÃ© t
i m
is t
ĠÃ© tÃ©
c tion
Ã© c
Ġ H
Ġ1 9
or s
l le
Ã© t
u b
Ã ´
ent re
Ġ ont
Ã §
0 0
o c
a ti
ĠL es
Ġ ou
Ġau x
ar d
Ġm ais
a y
ĠJ e
en s
i que
o p
Ã© n
Ġc ont
i v
au x
i on
u re
a p
Ã ł
Ġs i
er t
" ,
m i
en ce
Ġ -
an ce
m es
or d
in e
Ġa c
Ġ te
Ġm ar
Ġde ux
Ġs er
Ġf ait
ai ent
Ġcom p
our s
Ġ U
Ġp eu
o y
Ġcom m
Ġ ?
Ġpar ti
Ġ20 1
h e
is e
Ġa l
Ġs es
on d
l Ã©
c es
ĠE n
Ġm e
te ur
Ġc ette
Ġcom me
Ġs u
Ġm on
Ġp re
Ġa r
Ġt out
ant s
a ce
pr Ã¨s
ation s
Ġde v
.. .
us si
o it
o b
au t
c t
Ġcon s
Ãª me
o g
e ur
Ġpr Ã©s
Ġt ra
ĠdÃ© c
Ġ y
u m
Ġf or
Ġ on
Ġf in
Ġv ous
o li
Ġ 3
ĠC h
ai ne
il l
t es
Ã ®
a pp
Ġ i
Ġ K
o re
Ġl ui
Ġn ous
ti n
Ġd is
Ġa pp
Ġp er
ab le
ou p
Ġ entre
in g
t en
ai res
Ġa s
Ġ Q
u it
Ġm il
Ġle ur
ro is
ĠF ran
Ġan n
i b
Ã ¢
Ġg r
si on
n i
Ġde r
p ar
Ã© g
es s
Ġ ans
ouv er
t s
Ġ W
) ,
Ġn om
Ġt ou
o ci
oi re
on ne
Ġa t
t at
Ġau t
Ã¨ me
Ġav ait
end re
as s
ou ve
Ã© d
m an
Ġa ussi
al l
ai l
an g
ĠP ar
Ġb ien
e x
ub li
ĠÃ ª
s t
el les
Ġ elle
ment s
on c
Ġf aire
Ġg ran
Ġm Ãªme
a te
Ã© v
e c
m in
Ġt er
al is
" .
i ci
ti f
Ġm in
p uis
) .
Ġch e
Ġp ers
Ã ¹
Ġc l
ĠÃ©t ait
Ġc es
ti que
ĠÃ© c
our n
Ġa m
Ġtra v
e au
l er
Ã »
us e
ĠÃª tre
ĠQ u
Ġm a
Ġj us
v i
qu i
ti s
ĠM ar
Ġex p
Ġc ar
ale ment
a mp
Ġt u
on g
Ġa prÃ¨s
Ġ 4
Ġ es
b re
f or
Ġi mp
Ġv i
ent e
Ġdi re
Ġin ter
Ġ20 0
Ġo Ã¹
Ġqu el
ĠM ais
ĠO n
Ġre c
Ġ ti
p h
Ġp e
Ġs ou
Ġj u
Ã© m
an te
Ġr Ã©s
Ġp oli
Ġcont re
tion s
r it
mb re
o d
Ã¨ res
Ġen c
o se
Ġ 5
le ment
an c
ent s
il s
Ġr es
o tre
Ġr en
ou l
mp s
ĠdÃ© p
or te
u c
Ãª te
Ġtr Ã¨s
Ġde puis
Ġpre mi
Ġt rois
Ġp ubli
ĠE t
Ġac c
j et
Ġmil li
ne ment
Ġpro p
Ġpeu t
v en
o le
is te
v es
ĠD e
re r
ain s
Ġf r
v er
al es
Ġp ay
Ġd it
Ġd ont
Ġf ran
Ġcon f
Ġm an
n es
Ġs ans
en ti
oin s
ĠU n
ĠC e
ĠdÃ© f
ĠrÃ© g
Ġj ou
ol l
in s
t a
ch er
c u
ou pe
Ġse c
Ġ w
Ġpas s
en ne
tu re
is s
Ġ !
ĠÃ §
m Ã©
Ġl i
m ier
el on
Ġl ors
Ġp os
ci p
ĠÃ§ a
om me
Ġ" ,
Ã§ ais
ĠE lle
o si
ĠFran ce
ui te
it Ã©s
Ġ1 8
Ġenc ore
m et
Ã© p
Ġp uis
qu Ã©
Ġa d
ĠdÃ© b
an n
Ġt he
Ġdi ff
en se
Ġav ant
Ġcon c
Ġo b
Ġc o
Ã© l
end ant
Ġgran d
ĠÃ© g
Ġs eu
Ġpers onn
ais s
it u
r ait
ag n
Ġc el
e m
Ġs ous
ĠP our
ĠprÃ©s id
Ġg Ã©n
ag es
Ġ or
Ġ 6
Ġav oir
ig n
Ġa ff
ais on
ĠA l
in si
Ġp oin
Ġf ois
Ġal ors
Ġt ous
b le
Ġ ent
Ġre pr
Ã© b
Ġpay s
te ment
Ġas s
l is
Ġs oci
ĠA n
as se
i ch
Ġc r
Ġpre mier
Ãª tre
ou te
Ġm al
Ġr app
ur es
ĠrÃ© p
m is
Ġe ff
v ent
Ġs p
u er
i f
Ġte mps
Ġs t
a re
Ġs y
g n
m er
Ġd onn
Ġc our
Ġcomm un
Ġmon de
ĠA u
e mp
Ġs c
u es
a Ã®
ag ne
Ġm at
Ġle urs
at s
ĠU ne
Ġv a
ain es
Ġfran Ã§ais
om p
Ġn ouv
Ġe ur
Ġpe ti
ch Ã©
Ġm Ã©
m and
ro it
Ġs uis
ol og
Ġpro f
Ġm oins
a di
es se
Ġm ont
Ġp h
Ã©ri c
Ġpremi Ã¨re
ro p
Ġa b
Ġa insi
ĠÃ© v
Ġnom bre
Ġpar t
Ġv ie
Ġ 7
al itÃ©
Ġg ouver
ai lle
g an
Ġt h
ie urs
Ġpro d
Ġn ouve
te urs
Ġcon n
Ġtr ans
Ġd Ã©s
00 0
el s
u ti
Ġa ur
Ġc rÃ©
Ġen f
ĠÃ©g alement
v is
ti tu
Ġder ni
Ã©t ait
Ã´ t
Ġf il
ar i
ri c
j ours
n ier
U n
Ġ 8
c l
Ġpr in
om b
i Ã¨me
Ġv is
Ġtrav ail
ĠD ans
Ġser a
t res
Ã ¯
on om
Ġc ap
Ġm es
Ġil s
Ġf er
is tre
Ġb r
Ġin s
a ch
Ġo ff
ain t
er n
Ġf em
Ġc ert
Ġpr Ã©
Ġpl ace
ĠÃ ī
Ã© tÃ©
tat s
Ġn ot
Ġp ouv
o pp
ist es
on e
ci en
ĠT u
Ġtou jours
ĠdÃ© j
i x
u d
i ques
ti v
Ġm ois
Ġm oi
Ġder nier
ac c
Ġ k
Ġcont r
eu re
Ã© ra
en ir
Ġl ong
Ġ Y
Ġc oup
Ġn i
ri b
Ġjus qu
Ġen v
Ġpr Ã©c
i ons
Ġm ain
Ã ī
ĠprÃ©sid ent
Ġtou te
ĠI n
Ġr est
Ġc in
qui pe
ĠÃ© le
Ġgr oupe
Ġin di
Ġb eau
Ġc or
Ġc ol
Ġplus ieurs
mb le
er v
Ġs itu
Ġv ers
am ment
a z
Ġn on
li g
ĠdÃ©j Ãł
Ġpr is
o v
Ġm et
ig ne
Ġc a
Ġ1 0
Ġc an
r ai
u ction
Ġm is
Ġf a
Ġf am
ci d
ce p
ol u
Ġgouver nement
Ġn ation
a k
Ã© lÃ©
our d
o w
l Ã¨
ĠPar is
Ġs oit
Ġm ort
el l
i te
Ġs al
r Ãª
Ġd onc
Ġparti e
Ġre tr
r u
i es
ĠS i
ri e
er a
Ġann Ã©es
Ġs elon
Ġqu at
ĠdÃ©c l
Ġt o
ĠÃ Ģ
Ġj eu
Ġat t
om mes
Ġe mp
Ġaut res
Ġl ib
ar t
Ġf ut
Ġj am
Ã©r ation
i re
r is
Å ĵ
d re
gan is
Ġ1 5
at t
f in
or ti
ou le
Ġquel ques
Ġm us
Ġse m
a teur
Ġ eu
Ġa g
ar g
osi tion
c ont
om m
r ent
ch es
v re
Ġc as
er g
Ġm en
Ġ 9
d es
Ã¨ ne
Ġj ourn
Ġv ic
at h
l us
a ur
Ġn o
Ġg ar
Ġre t
ri v
ĠV ous
Ġnouve au
i mp
Ġper met
Ġ19 9
Ġmin istre
Ġre p
for m
Ġn otre
ĠC ette
Ġmilli ons
t on
er c
Ã©r al
Ġ im
Ġb as
ĠdÃ© v
Ġam Ã©ric
Ġ1 7
o de
a h
Ġf ond
ĠprÃ©s ent
Ġqu and
Ġl Ãł
ti ques
Ġdis p
ĠIl s
ĠJe an
Ġpubli c
Ġpr Ã©v
ĠD es
Ġv ille
Ġpro jet
Ġj our
ĠÃ© p
Ġs ui
Ġpersonn es
Ġau tre
ex p
e d
Ġf aut
i ent
Ġes p
Ġjam ais
t h
ction s
op Ã©
Ã» t
ab les
elle ment
Ġse p
ĠdÃ© m
oi x
il i
Ġo f
c oup
Ġre mp
r on
at ure
Ġnot amment
h ui
an ge
Ġs oir
ĠN ous
i eux
ri Ã¨re
iv ers
Ġpro g
Ġre g
Ġche z
a de
tion n
Ġs Ã©
pe ct
ĠS aint
Ġd oit
qu er
ien s
i Ã¨re
ate urs
Ġc ours
Ġmat ch
v ers
Ġexp li
Ġj ours
eu t
ĠdÃ©b ut
Ġb l
res s
a que
uti lis
a ff
i de
Ġp ort
Ġt our
Ġ" .
j ourd
ve z
di c
Ġd roit
i le
i ti
Ġfor m
p er
ra m
Ã© li
Ġv rai
u g
ĠT h
Ã©ri e
Ġv er
ar s
ĠC an
se ment
an de
il les
l a
c c
Ġcom pr
Ġv ol
o k
ant es
ĠN e
an ces
f ois
on de
l u
Ġc Ã´
Ġc ent
Ġpoli tique
v oir
Ġbeau coup
Ġren cont
Ġli eu
g er
Ġnouv elle
Ġr ien
n ation
Ġ1 2
us es
Ġf ais
Ġd ur
ĠA r
Ġquat re
Ġrepr Ã©s
Ġb on
en n
t ant
ĠQu Ã©b
in t
it er
aut res
mb l
ĠrÃ©g ion
Ġv oir
Ġm om
Ġprin cip
Ġf ace
o pe
Ġh ab
Ġpro b
ri er
Ġimp ort
ĠR e
Ġ X
Ġgran de
Ġre l
Ġm ati
Ã´ le
li er
Ġ1 6
ĠC ar
ais se
Ġin c
Ġqu es
Ġs ais
Ġche f
ĠrÃ© alis
or m
Ġo p
Ġc et
Ġch amp
el opp
Ġp op
e z
Ġs orti
Ġp endant
Ġs aison
ĠM ont
Ġdev ant
i eu
Ġpoin t
v ier
Ġde mand
Ġeur opÃ©
Ġs ouv
o h
Ġl Ã©g
Ġv oul
te l
ti c
en u
a me
Ġpr Ã¨s
Ġcon d
ai te
ve ment
Ġn os
ĠdÃ© par
Ġcel ui
ĠB r
en ces
Ġ and
Ġd ou
Ġp orte
Ġ1 4
ti er
au l
man de
is es
Ġcel a
i a
ĠdÃ©cl ar
re t
Ġ Z
ĠA prÃ¨s
2 0
ĠS t
g es
e urs
Ã© ci
Ġdiff Ã©r
il itÃ©
tÃ© ri
au d
Ġtout es
Ġfam ille
ten ant
ĠQuÃ©b ec
r ont
Ġl oc
Ġpl an
ati que
Ġpop ul
ille t
it al
ard s
Ġ z
Ġc ri
Ġ 0
Ġ- -
Un is
ĠÃ©t aient
Ġm oy
Ġv otre
Ġcons tr
Ġc amp
un es
end u
Ġme ille
Ġp i
Ġsu pp
Ġcon tin
Ġch er
ĠÃ© tu
Ġ1 1
Ġb ut
Ġ3 0
y s
Ġs ol
Ġ ouv
Ġmom ent
in es
Ġfil m
ist oire
Ġt rop
us s
ai r
Ġm ai
eur es
Ġres te
Ġl iv
ent es
ais e
r Ã©e
Ġcomp te
Ġm od
Ġf on
Ġd om
m Ã©e
Ġapp el
Ġpouv oir
k e
f i
en c
ĠM on
Ġv oit
ar ge
ĠdÃ©v elopp
Ġ1 3
v ous
an ci
am b
Ġt Ãªte
Ġcon se
Ġal l
g l
Ġdire c
Ġcom b
Ġs uite
ac t
si ble
Ġann Ã©e
Ġc rois
uer re
ĠC om
Ġpr om
Ġrapp ort
ien ne
Ġsp Ã©ci
u el
Ġ19 8
ĠgÃ©n Ã©ral
Ġc ul
Ġt Ã©lÃ©
Ġfem me
Ġc li
si onn
ra Ã®
Ġje une
Ġpro ch
m ar
Ġseu l
ĠcÃ´ tÃ©
Ġin d
ĠrÃ© f
Ġderni Ã¨re
an e
Ġres p
Ġa j
e ment
Ġt ourn
Ġ utilis
Ġpr es
Ġch ose
Ġc elle
Ġre f
Ġenf ants
r y
us t
Ġv o
Ġpro c
Ġl aiss
Ġquel que
le x
si ons
Ġv endre
au v
Ġin f
Ġau c
is me
Ġeff et
Ġter r
Ġau jourd
Ġtr ouv
Ġor ganis
an vier
Ġre ven
Ã§ on
Ġh omme
z e
r il
A n
onc Ã©
ĠreprÃ©s ent
Ġi ci
uit s
at ri
Ġju in
Ġm o
Ġpour rait
ur ope
Ġpro v
c ul
Ġes ti
us se
Ġn Ã©
Ã©c ur
Ġpr endre
Ġparti r
Ġp Ã©ri
o Ã»t
i me
Ġcin q
Ġdeux iÃ¨me
Ġav aient
Ġcl ub
oi e
Ġj anvier
ĠC l
Ġmar s
au tre
Ġma j
Ġser v
in d
Ġprop os
1 9
Ã© quipe
Ġp ens
Ġparti cip
Ã¨ g
Ġ id
it aire
Ġf l
Ġser ait
ui re
ti en
di tion
Ġinter nation
Ġpr ix
o que
g Ã©
Ġser vi
Ġ 000
Ġb es
Ġparti cu
te mbre
Ġ ess
a x
Ã©r Ã©
ran d
Ġpoin ts
ĠÃ©c onom
Ġc eux
ier re
Ġsem aine
si d
ĠdÃ© ce
Ġg ens
Ġb at
Ã§ ois
Ġp u
ĠS elon
qu oi
ob re
p s
es p
al i
ac k
li c
pr ise
in ter
ve au
ic es
ĠC on
un di
Ġt ant
Ġapp ar
ĠrÃ© c
Ġc ir
aÃ® t
Ã¨re ment
Ġch aque
Ġsep tembre
s uite
ĠP h
i onn
Ġs ign
Ġv eut
Ġ19 7
Ġf ort
our g
Ġsi Ã¨
ĠS on
Ġper d
Ġaur ait
Ġh eures
Ġp Ã¨re
or ter
Ġs ub
ann Ã©e
ĠS h
Ġmon di
Ġv en
av oir
Ġti tre
r Ã©s
ad a
er ci
ve mbre
Ġin tÃ©
Ġpeti t
Ġresp ons
Ġb ou
os s
Ġ is
Ġs our
Ġv iv
Ġp le
re di
Ġcom ment
Ġr aison
y p
ĠdÃ©ce mbre
di e
is ion
Ġr ou
Ġv u
Ġ _
or i
a Ã¯
Ġv oy
b e
Ġju illet
Ġb ar
Ġo ct
il li
ĠCh ar
le ction
cu p
Ġc entre
or tÃ©
les s
ol es
Ġc oll
I n
Ġ2 5
Ã¨ tres
rib u
Ġdi man
Ġno vembre
ir on
g rÃ©
c o
erc redi
op h
Ġv eux
Ġsi x
di d
ĠrÃ© v
Ġs Ã©rie
Ġa fin
ĠC es
ai d
ĠG r
Ġh ommes
t out
Ġde mande
Ġaff ir
n er
Ġr is
Ġ eux
Ġte ch
A l
Ġvendre di
Ġdi ri
Ġt ard
Ġdiman che
Ġs us
Ġav ons
Ġdis c
= "
o ff
Ġc ad
Ġmais on
p ort
alis te
av ant
ĠrÃ©s ul
n Ã©
Ġrec onn
is Ã©
tif s
Ġsu cc
Ġt ot
ĠB l
ĠB ar
Ġprog ram
ti ve
Ġs Ã©cur
ĠÃ© ch
te mps
Ġvi ol
Ġmati n
Ġje unes
Ġoct obre
Ġpar ce
Ã¨ ce
or itÃ©
qu Ãªte
Ġl anc
u le
Ġret our
Ġm ieux
Ġfon ction
Ġsa me
rÃª t
ant Ã©
it es
oi res
ĠÃī tats
Ġmet tre
y n
ra ph
Ã «
Ġl undi
Ġjus te
Ġques tion
et s
f s
b les
Ġd oll
Ġpoli ce
ri r
Ġvic t
Ġfem mes
Ġseu lement
ĠrÃ© d
Ġcert ains
Ġoff ici
Ġpers onne
pe c
Ġmar di
Ġsi mp
Ġl igne
l and
as t
Ġjeu di
Ġre cher
I I
Ġre v
Ġemp l
j oin
in c
Ġcan did
ĠM ich
Ġt oi
il es
Ġl oi
it s
res sion
olu tion
tin g
Ġpour s
' s
Ġcon sid
Ġpr end
c le
ang er
Ġsouv ent
Ġsame di
s s
Ġm ot
ĠS e
ĠS ur
eur os
Ġre Ã§
ill er
ĠdÃ©clar Ã©
om e
Ġqu ar
Ġav ril
Ġg uerre
Ġm ercredi
os Ã©
v ant
Ã©v rier
Ġb an
y ant
Ġni veau
i ers
Ã¨ le
Ã¨ te
Ġsy st
Ġex emp
p l
se z
Ġs tr
Ã© ti
Ġpr iv
Ġd Ã¨s
Ġ19 6
Ġc al
ag er
Ġen se
an che
Ġme mb
Ġsec ond
Ġg l
Ã¢ ce
Ġb onne
Ġmar chÃ©
Ġin st
Ġpass Ã©
Ġsoci Ã©tÃ©
Ġac tu
Ġm ag
Ġcomm une
it h
ĠrÃ©p ond
aille urs
oi gn
Ġb less
au te
Ġcap it
Ġn ord
Ġbes oin
o ot
Ġf Ã©vrier
ur ent
Ã©n Ã©
Ġr ue
Ġqu oi
ĠG u
an ti
ur g
qui p
u li
Ġservi ce
u te
Ġh a
ri que
Ġh um
ici le
ĠÃ© quipe
Ġp o
i o
t ent
Ġmar i
Ġd ist
Ġh e
Ġser ont
Ġd r
Ġn ature
ĩ a
as si
Ġsi te
A r
f ic
rÃ© al
Ġa lle
Ġr ap
Ġ201 4
Ġt ent
os es
Ġo c
Ġn Ã©c
on ce
ĠFran Ã§ois
Ġat te
l s
Ġt ri
Ġmemb res
Ġg agn
ie d
vis ion
Ġsa voir
Ġaut or
oc k
ig ue
Ġsu d
Ġt on
Ġnation ale
Ġpas se
Ã©r ence
ĠT he
Ġf ils
ĠdÃ©p l
en de
cid ent
Ã© qu
Ã¨ rent
Ġm ise
ati ve
ĠNe w
Ġen g
ous s
Ġg ra
Ġmain tenant
qu el
le c
Ġn Ã©g
i ff
Ġdes s
ĠrÃ© un
ĠS a
ĠfranÃ§ais e
Ġm Ã©t
ĠM e
al ie
Ġtr ouve
Ġat ta
al le
j e
Ġvrai ment
Ġpeu vent
Ġen suite
Ġf ille
ou n
it ants
Ġt omb
Ġann oncÃ©
Ġqu it
ĠsÃ©cur itÃ©
g ment
t ra
Ġman if
Ġca use
Ġmilli ards
ĠT out
Ġ201 5
id Ã©
Åĵ u
ti ent
Ġf ont
Ġh aut
Ġdev rait
el a
Ġ201 2
ĠAl ors
j ec
i ce
m ment
Ã© rer
Ġd oc
r as
ĠÃ ĩa
Ġeur os
Ġsitu ation
Ġt en
Ġs ens
m Ãªme
en v
Ġ19 4
Ġm un
g u
u tÃ©
l les
ĠÃ ¢
av ait
au che
ĠamÃ©ric ain
ur Ã©
Ġsur tout
ĠA vec
ĠD u
as ion
Ġtrois iÃ¨me
Ġentre pr
Ġar riv
Ġd os
ou se
ac tion
pp e
Ġvic ti
en nes
Ġa oÃ»t
Ġp ense
Ġm Ã¨re
Ġdoll ars
p endant
Ġnombre ux
Ġ201 3
Ġth Ã©
ĠdÃ© t
ĠA m
Ġdirec teur
l y
Ã© ro
er re
ti t
k i
Ġs Ã»
Ġ2 1
Ġpar c
aÃ® tre
ĠP lus
Ġsy n
tÃ©ri eur
as h
is ation
b all
ĠC or
s p
ut es
ĠnÃ©c ess
Ġtrav ers
ĠdÃ©c ouv
m ain
in tÃ©
mis sion
L e
ill age
Ġw e
or k
Ġdonn er
Ġv it
ĠCan ada
Ġ2 4
ĠP as
is tr
Ġexpli que
ĠprÃ© f
Ġmin ist
oci ation
s ance
qu ant
s on
Ġ elles
Ġ2 2
Ġl im
e ff
ten tion
Ġsu jet
h istoire
Ġtr ouver
Ġph ot
Ġsyst Ã¨me
ĠpÃ©ri ode
Ġr end
Ġl oin
Ġacc ord
c ri
r aient
Ġqu al
Ġ ord
Ġpeti te
a j
Ġar ri
Ġfin anci
Ġr ac
Ġpr Ãª
Ġk m
Ãī tat
Ġf eu
i el
ot h
- -
us Ã©
Ġg en
Ġfr om
ĠT r
is er
di tions
Ġfor me
l o
Ġn um
h omme
is c
og raph
Ġ201 1
Ġdi x
ĠP r
Ġn uit
ag it
ĠJ oh
ĠDe puis
Ġgr Ã¢ce
olog ie
Ġpass er
Ġrencont re
ĠB el
Ġter rit
at Ã©g
Ġa vez
Ġre m
at ta
Ġb e
3 0
ut Ã´t
ĠMont rÃ©al
Ġp eux
Ġdonn Ã©
Ġ201 7
Ġ201 6
er ie
a pe
ĠdÃ© cid
ivers itÃ©
Ġpar ler
Ġcon v
Ġl it
ĠM al
Ġcor ps
Ġas sez
ici p
J e
Ġseu le
a f
Ġal ler
Ġmanif est
Ġprof es
Ġ( "
Ġch ange
h eure
Ġs ort
n ent
Ġserv ices
ĠmÃ© di
Ġs ommes
ar de
ro g
Ġch oses
oi ent
Ġ $
Ġpl ac
Ġfa Ã§on
Ġvi ent
5 0
Ġ201 0
ou d
ti ce
ert s
Ġd oi
Ġconf ir
Ġsou h
Ġa yant
Ġche v
Ġcomm enc
Ġm ouve
Ġconf i
Ġb Ã¢
Ġs pect
ĠS ch
di en
ne ur
tiv itÃ©
re g
ten ir
for me
Ġf ra
oup es
Ġnouv elles
oi te
o x
ab ord
u p
Ġcl asse
l am
Ġnation al
Ã© ch
Ġaur a
res se
qu elle
Ġv ais
Ġp at
ĠB en
Ġv ue
Ġin v
ĠN ic
Ġmun icip
Ġtech n
ou is
Ġjou eurs
Ġsucc Ã¨s
Ã© h
ĠC omme
u ve
le t
ĠÃ©t ran
l in
in ce
ure r
ro y
Ġpr esse
Ġvict oire
ist or
Ġgrand s
Ã© tu
Ġpl utÃ´t
Ġjourn Ã©e
Ġr ess
Ġpos sible
ar r
on es
Ġs au
Ġpl u
Ġfin ale
ĠdÃ©c ision
l ise
Ġla quelle
Ã©ra le
g h
ail l
Ġc it
ĠM an
i tion
a prÃ¨s
Ġr Ã´le
in st
1 8
Ġexemp le
ĠO u
ĠdÃ©f ense
Ġr om
ĠÃ©c rit
Ġr Ã¨g
Ġdire ction
Ġh eure
Ã©c u
li e
Ġdur ant
Ġrap ide
onne ment
x te
Ġpopul ation
Ġse in
ĠP re
Ã¨ de
os er
ille urs
Ã¨ ge
Ġgr os
ri ce
ĠQu and
Ġsc Ã¨ne
Ã« l
Ġ2 3
ĠdÃ© n
orm ais
Ġs antÃ©
Ġd onne
Åĵ ur
Ġin form
Ġaut our
i k
Ã¨ ve
Ġv ois
Ġp ied
h Ã´
ter n
Ġreg ard
ĠS y
ĠR ob
Ġch ois
Ġpremi ers
Ġ201 8
e k
en f
ul t
Ġ5 0
ĠÃ©t ab
g r
Ġcul ture
Ġcamp agne
l Ãł
ĠL ors
ĠC ol
Ġv ale
ĠA b
Ġob s
Ġmin utes
en si
vi ent
v Ã©
u ment
ĠP ro
ch Ã©s
Ġsu p
Ġcons titu
Ġcad re
b um
Ġb Ã©nÃ©
Ġin ves
d it
Ġmil ieu
Ġqual if
Ġconse il
Ġ200 9
Ġv ont
aiss ance
Ġdev ient
Ġc ou
Ġf ac
ĠD i
al d
Ġindi quÃ©
Ġte mp
Ġmus ique
Ġen d
est re
et tes
Ġter me
Ġt able
Ġsem aines
lÃ© ment
Ġt Ã©m
Ġf oot
Ġse mble
Ġch iff
Ġo pp
Ġf ig
L a
Ġar tis
acc ord
Ã¢ te
y pe
oc c
Ġpoli ci
Ġg auche
Ġparticu li
Ġde mi
au me
Ġ200 8
O N
ap on
or ig
Ã©ri que
Ġl arge
qu ent
ain te
ĠFran Ã§ais
ĠP ierre
ĠJoh n
ĠdÃ©velopp ement
Ġr iv
Ġju ge
Ġm er
h ab
Ġeff ec
Ġman iÃ¨re
ad er
ĠÃ© quip
E tat
Ġv Ã©r
Ġr oute
o z
Ġv oix
Ġa illeurs
ib le
ĠÃ©tu di
Ġmes ure
Ġprofes sionn
oc ra
arg ent
ĠP l
ĠdÃ© g
Ġl ang
Ġdiri ge
en g
re z
ati ques
an cien
al itÃ©s
Ġsu ff
Ġc iv
Ġ1 00
de c
Ġz one
ĠS te
in f
able ment
or ganis
Ġbas e
ĠrÃ© ussi
a w
Ġ /
ti Ã¨re
ĠG e
Ġprod uction
Ġab s
is sion
l ent
qu is
Ġprogram me
ol y
ĠdÃ©par t
Ġb i
ra le
Ġter min
ĠdÃ©s ormais
au tÃ©
Ġd Ã»
ĠdÃ©par tement
ĠN ord
Ġjou er
ul ti
Ġma Ã®
d er
E urope
Ġauc un
a ci
onom ie
r ou
Ġf Ã©d
Ġcr ise
Ġderni ers
it aires
Ġcommun i
Ġcir c
ob il
ĠE tats
Ġan im
ĠR Ã©p
Ġcar riÃ¨re
ĠO r
ag Ã©
in a
ĠeuropÃ© enne
ois e
ĠÃ©le ct
Ġsou ff
Ġau gment
Ġv al
Ġdis par
Ġv illage
o ti
t te
ĠI s
Ġprop ri
Ġentrepr ises
ĠÃ© n
Ġs enti
g ne
ĠM me
Ġimport ant
r ais
ĠD av
Ġt aux
at oire
emp l
ĠÃ©t ant
Ġf ai
on ie
er ne
o te
Ġter re
Ġm aire
i p
Ġch arg
Ġconc ern
Ġ4 0
Ġt rib
Ġr oi
Ġf av
he im
ic ation
Ġn eu
ur b
ab ilitÃ©
Ġpe ine
m agne
Ġan ti
Ġform ation
at es
Ġtr ait
Ġsec teur
Ġrecher che
am bre
on te
Ġpubli que
Ġenv iron
Ġpos s
Ġcomp agn
Ġmeille ur
Ġnouve aux
et er
id ent
Ġhab itants
p tion
orig ine
ai de
ĠÃ©conom ique
Ġpos te
Ġd oute
Ġconn u
Ġr adi
Ġjourn al
Ġan cien
Ġent raÃ®
use ment
Ġpours ui
Ġ2 7
Ġse x
ol d
Ġ2 6
m oi
ten u
ri g
r ant
Ġlong ue
Ġm i
ubli que
Ġjou eur
ĠD an
ĠF in
1 0
Ġ19 5
Ġau prÃ¨s
Ġaj ou
Ġte lle
ti ne
Ġremp l
Ġdes tin
Ġderni Ã¨res
l Ã¨me
Ġdos si
Ġ2 8
Ġmouve ment
Ġl ut
ai e
Ġ201 9
Ġb ord
u y
ing t
l or
Ġl et
ĠR oy
av ais
lle magne
Ġsui v
and is
er b
Ġch oix
es te
Ġm or
o ch
Ġg Ã©
Ġh istor
F P
oi d
tiv itÃ©s
ro d
qu Ã©e
ense mble
ar k
ĠrÃ©sul tats
Ġor ig
c rit
Ġp osition
ĠN on
Ġex c
ati s
Ġdr oite
Ġpour quoi
Ġe mb
Ġterr ain
Ġtoute fois
ĠC our
au teur
Ġv idÃ©
Ġliv re
Ġr endre
ord re
Ġin t
par t
ar c
se ments
ic k
Ġcons erv
Ġauc une
lÃ© g
Ġa ch
Ġs ig
ĠmÃ© dec
ĠÃª tes
ĠAn g
se il
Ġris que
ĠprÃ©s ente
ar ch
Ġprod uits
Ġprob lÃ¨me
Ġim m
Ġdroit s
Ġcol lec
ĠPh ili
ĠS ud
Ġs ac
ĠsÃ» r
Ġpar fois
Ġpar mi
au de
ud g
an a
ĠbÃ¢ ti
am a
Ġfor ce
Ġy eux
Ã¢ tre
ort s
Ġm auv
Ġmondi ale
ĠamÃ©ric aine
ĠprÃ©c Ã©d
Ġs ait
ĠJ us
Ġh ier
enn ent
ar mÃ©e
aire ment
ĠT ru
ig h
ĠP e
in Ã©
Ġprop re
Ġre lig
Ã©t ais
ĠG rand
v ille
Ġaut ant
an o
Ġche min
Ġv os
i Ã©
ĠQ ue
us ion
on y
Ġretr ouv
c k
Ġar rÃª
x im
r age
Ġdoi vent
ĠY ork
aul t
mi Ã¨re
Ġatt end
Ġprod uit
m a
Ãª tes
ouver ture
onn es
ionn at
c Ã©
ĠE urope
ĠdÃ©f in
Ġtrav aux
p le
v id
Ġc y
as e
Ġg ard
os t
ien nent
ĠP aul
Ġvoit ure
rit ann
Ġs cien
Ġdiff icile
mÃ© di
ĠM ad
Ġjou e
ĠC ela
ĠCon seil
Ġgen re
ĠH ar
ĠQu el
ĠJ ac
Ġsu per
li gn
b ourg
Ġacc omp
Ġre join
se mbl
Ġsa v
Ġcomp Ã©ti
ĠB e
Ġgrand es
Ġsal le
Ġan gl
Ġch ar
Ġfor ces
ĠH e
Ġdiff ic
Ġt a
i che
Ġch ans
Ġspect ac
Ġn av
ou b
ĠC oupe
oy er
ritann ique
Ġper mis
ti e
Ġv enir
Ġcon te
Ġlong temps
Ġnombre uses
ĠD eux
ri d
Ġacc ue
Ġt ype
or Ã©
Ġc am
Ġw h
Ġ200 7
ci pe
ouver te
A m
Ġpoli tiques
ĠV al
age ment
ati ves
1 5
Ġme ur
Ġm Ã¨tres
ĠprÃ©s ence
in er
Ã©c ole
t or
Ġha usse
Ġrapp el
Ġcond am
Ġv Ã©h
Ġass oci
id er
anc er
it y
ad es
Ġk il
ol as
Ġproch ain
Ġjus tice
Ġpres que
Ġconstr uction
Ãª mes
v res
Ã¨ se
Ġperd u
tÃ© r
Ġcomm erci
en ant
re c
Ġb udg
Ġt andis
Ġsup Ã©ri
entre prise
ĠÃ©tran g
ĠA d
re ux
s y
C h
Ġcontr Ã´le
1 7
Ġp ati
Ġs out
Ġvol ont
I l
ĠvÃ©h ic
f ici
ati f
ou x
Ġminist Ã¨re
occ asion
u me
qu et
ĠL igue
U S
b y
Ġcan adi
Ġ19 3
Ġpar le
Ã¨ ces
Ġtr ain
Ġfav or
k a
ĠL ib
Ã ¼
us tr
Ġempl oy
Ġb al
Ġp Ã©n
ĠR ussi
Ġgar de
m en
Ġlors que
oin e
Ġsyn dic
rÃ© t
ĠR en
Ġl iste
ay s
ou est
Ġa i
Ġb out
Ġpar ents
ch i
ĠdÃ©cid Ã©
Ġac cep
ĠcrÃ© ation
Ġterrit oire
Ġder riÃ¨re
er ce
alis ation
ĠM ac
ĠRÃ©p ublique
ĠS u
Ġb elle
Ġl ance
ent rÃ©e
Ġsorti e
Ã© di
ro che
jec tif
Ġcommuni quÃ©
p ital
Ġsitu Ã©e
Ã©t aire
ĠS al
ent raÃ®
ĠMar c
u elle
Ġtrans port
Ġapp r
ag ue
Ġle quel
or ation
Ġsep t
end ance
Ġd ate
Ġch ac
ore r
Ġmar que
Ġrest er
Ġajou tÃ©
ĠPour quoi
Ġense mble
Ġv ingt
Ġtot al
ĠrÃ©s eau
Ġcher che
o e
Ġ us
Ġcon ditions
Ġce pendant
Ġa mi
Ġcomm and
Ġ2 9
Ġs h
er ve
Ġs om
ir onnement
Ġ Åĵu
ĠCh ine
ique ment
y si
ven tion
Ġautor itÃ©s
Ġb ois
Ġre d
Ġl og
am en
Ġcour se
ĠAn d
ĠL ouis
ar a
Ġproc Ã©d
ĠmÃ© dic
ti ers
Ġb ure
Ġfoot ball
ĠÃ© l
l ant
Ġmal grÃ©
u les
Ġan al
Ġb y
Ġmaj oritÃ©
ĠMich el
min istr
ti l
ĠÃ©le ctions
Ġme mbre
Ġl o
Ġcert aines
pr it
ol Ã©
ĠB er
Ġdi vers
ĠCh ris
cep tion
Ġcrois sance
Ġv as
ĠsiÃ¨ cle
Ġl u
Ġvoy age
ĠreÃ§ u
Ġpro t
ran ce
L es
Ġch arge
Ã©p oque
E S
ĠCh amp
onn Ã©
es tiv
l it
Ġs ang
Ġs aid
titu de
Ġcons omm
ĠnÃ©g oci
ĠO ui
le y
in aire
ĠD ieu
ve ur
Ġexp l
Ġm ulti
ĠB ien
b er
Ġpris on
o il
ĠE st
avant age
Ġp ap
Ġdev ait
Ġcompagn ie
i z
osi tions
Ġrespons able
Ġcomb at
Ġb aisse
Ġdemand Ã©
ĠL ond
ĠC he
Ġdi pl
1 4
Ġouv ert
Un ion
Ġb el
Ġa mb
ac itÃ©
e mb
d ess
o od
Ġdire ct
Ġ '
ass er
Ġrapide ment
Ġpro tÃ©
Ġse mbl
Ġsitu Ã©
Ġparti s
end ra
er tÃ©
ĠS p
am es
Ġfin alement
Ã©r ations
Ġp ai
Ġmes ures
Ġ .
Ġqu oti
b o
m ont
ĠCom ment
app el
ĠI I
Ġmoy enne
O r
Ġc oule
1 2
Ġj ur
Ġmort s
Ġpar ten
estiv al
is sement
et Ã©
Ġple in
Ġp il
Ã©l Ã¨
Ġlanc Ã©
Ġaut om
Ġtrouv Ã©
Ġan ci
Ġh uit
ĠC ons
ust ri
Ġs tat
t alie
ne ments
Ġre b
Ġpremi Ã¨res
Ġpour tant
Ġen quÃªte
ig r
Ġcit oy
Ã© le
ter min
ot s
Ġp al
Ġesti me
Ġsouh ait
an ne
Ġlaiss er
1 6
Ġr Ãª
ĠDav id
Ġsoci al
h a
Ġf rÃ©
Ġlors qu
Ã© tique
ces s
ĠA lex
Ġsou lign
Ġvi te
Ġc ouv
Ġin iti
a rer
or ie
i ra
di tionn
ĠprÃ©c isÃ©
Ġfr Ã¨re
Ġpeti ts
tis s
all er
Ã©m a
w e
Ġob lig
ĠPar ti
ĠNic olas
Ġinternation ale
ĠdÃ©m ocra
Ġcapit ale
atri ce
Ġsec onde
Ġg u
Ġalle mand
c s
Ã¢te au
Ġun ivers
Ġplu part
in ation
Ġsour ce
ĠE x
r ist
Ġres pec
in form
Ġr oy
b ilitÃ©
Ġdonn Ã©es
Ġmil itaire
Ġsu c
end s
ra d
Ġsig ni
Ġr ais
ar es
ĠtÃ©lÃ© ph
Ġpos si
enti el
Ġcontr at
Ã¨ nes
ĠW e
Ġdossi er
ĠÃ©quip es
Ġquar tier
ĠRussi e
olog ique
Ġsimp le
Ġcommun autÃ©
Ġkil om
Ġc elles
Ġf ab
iv er
ti Ã©
Ġf all
Ġenf in
Ġch aÃ®
Ġv e
ĠN o
ĠÃ©t at
v ie
Ġen reg
ĠD on
Ġcomm ence
ĠB ou
ur ant
Ġco Ã»
Ġques tions
ĠC ert
Ġf ix
s h
Ġth at
et t
ĠTru mp
f ait
Ġconfi ance
Ġre mar
Ġappel Ã©
Ã¨ mes
Ġpr ise
Ġin de
erg ie
Ġm ess
" )
Ġv eu
Ġde me
Ġfor te
Ġsorti r
Ġvicti mes
Ġlib re
ĠM or
b ert
ĠGe or
ĠE m
ta de
Ġpubli Ã©
Ġsou tien
ĠrÃ©s id
res p
ĠMar ie
ci de
ĠsÃ© lection
c al
Ġmoy en
ĠE l
ĠprÃ© par
ĠPhili ppe
ass Ã©
h um
ministr ation
Ġprov ince
Ġ19 2
Ġ ital
Ġpl ais
Ġh istoire
Ġparticu lier
Ġs oli
Ġgr oupes
ur r
re ur
rÃ©t aire
par ole
Ġ3 1
Ġn oir
ĠBel g
f rique
Ġf le
ail les
Ġquel qu
ĠgÃ©n Ã©rale
ig e
Ġa im
Ġinternation al
Ġ &
ĠB ern
is l
id Ã©e
l an
Ġpouv ait
ar m
Ġ ir
Ġin cl
Ġd ois
im m
ĠO b
Ġcomp lÃ¨
Ã© min
Ġfa ci
li que
ul aire
in i
Ġfais ait
ĠT our
Ġf ou
Ġman que
Ġm and
ĠT ur
ĠP S
is ter
Ġpro che
Ġal bum
A S
or de
Ġre ti
a e
Ġexpli quÃ©
Ġch ance
onne ur
Ġoc cup
v al
ĠdiffÃ©r ents
y th
tis sement
Ġproch aine
E n
i di
esse ur
Ġimp os
p ir
os c
Ġ200 6
ĠH oll
Ġpuis s
ill on
ĠV ille
Ġtravail ler
ie z
Ġam is
un d
qu Ã©s
E R
Ġb ritannique
iss ent
ĠM c
Ġr ang
Ġcompr is
ĠRob ert
ĠvidÃ© o
ĠX V
ĠD r
un g
li r
Ġpro te
Ġqu alitÃ©
Ġpass age
Ġcons Ã©qu
Ġchamp ionnat
Ĥ ¬
Ġstr atÃ©g
ch ant
Ġg es
ĠT e
Ġfra pp
â Ĥ¬
1 3
Ġcli m
sp agne
Ã§ ant
si eur
c on
Ġt Ã´t
A N
Ġcandid at
Ġcontin u
it able
Ġv ain
Ġsal ari
ĠQ ui
Ã¢ ge
ing ton
ut Ã©s
Ã©ri ence
Ġpe in
Ġeffec tu
Ã´ me
Ġtrib un
ĠLond res
Ġp ot
ni ques
ac es
ĠD Ã©
Ġvo te
Ġdev enir
Ġa f
Ġs orte
ĠS er
Ġrest aur
Ġnom mÃ©
Ġmati Ã¨re
enti elle
Ġa li
Ġv oie
Ġsus p
rÃ© es
i ve
M ar
Ġparticuli Ã¨rement
Ġa it
ĠChar les
Ġte l
ĠPre mier
Ġcons ac
lÃ¨ mes
in di
tic le
ĠF or
Ġsol d
Ġretr ouver
Ġess ay
ĠrÃ©g ime
ĠM Ãªme
Ġrou ge
Ġa ction
Ġp eur
k s
Ġph ysi
ĠrÃ©alis Ã©
Ġfond s
Ġ20 00
Ġt al
Ġl aisse
Ġt est
Ġdes c
ĠÃ© m
en ue
ĠE d
Ġnum Ã©ro
% .
O n
Ġc ab
ot te
il an
Ġenv oy
ar itÃ©
ard in
Ġfais ant
Ġm Ã©d
A FP
ai tement
ubli c
ĠA t
Ġad op
Ġcir cul
Ġt ax
Ġc ath
Ġcommun es
Ġch in
Ġex tr
Ġs o
Ġc Åĵur
ĠeuropÃ© en
ar y
ĠB an
ci e
Ġac tivitÃ©s
Ġprob lÃ¨mes
it ation
ĠA insi
ĠIn ter
Ġenf ant
Ġv ari
y le
R E
Ġvale ur
Ġw ith
ti vement
Ġv ir
Ġf isc
uc teur
Ġren de
Ġbut s
mi di
Ġp ol
Ġm ains
Ġh Ã´
Ġf ourn
Ġchamp ion
Ġmis sion
ti m
ĠA c
Ġcoll ab
onc er
Ã©c ois
te d
ci ence
Ġver sion
Ġ6 0
ĠÃ©c l
ĠbÃ©nÃ© fici
re d
Ġkilom Ã¨tres
o quÃ©
Ã©g lise
Ġre ce
aff aires
Ġviv re
Ġv oi
Ġbl anc
Ġp ouss
s ur
Ġsoir Ã©e
Ġc at
Ġsec rÃ©taire
Ġprojet s
m Ã©s
Ġmal adi
Ġpolici ers
Ã©c onomie
us Ã©e
ob ile
on se
onn er
u ments
Ġaffir me
an im
ĠH en
v in
ai gn
o Ã®
Ġfait s
ĠG ran
Ġte xte
b es
Ġou b
' "
Ġmatch s
Ġind Ã©p
met tre
min ist
an i
od es
Ġaffir mÃ©
pr Ã©s
it ant
di re
Ġpr im
ĠP ort
Ġlib ertÃ©
ĠL u
Ġmoi tiÃ©
ĠdÃ© termin
Ġ5 00
Ġdev enu
ve ill
ĠprÃ©c ise
Ġfr on
Ġg az
Ġsoci aux
ai me
ĠP uis
Ġwe ek
g ent
d el
Ġcert ain
ra p
Ġvis ite
ĠÃ© lÃ¨
Ġind ustri
et h
ĠS es
ĠR ich
Ġpermet tre
Ġactu ellement
Ġcommenc Ã©
ĠS am
Ġatte int
in te
Ġdou ble
ul Ã©
Ġdi z
Ġr asse
Ġchac un
Ġrempl ac
tis te
a ment
ĠdÃ©b at
ĠmÃ©di as
y d
tr uction
ĠÃ©tu des
ĠF ace
Ġles qu
Ġpuis que
am our
A s
Ġrec ord
ĠJac ques
Ġh as
Ġmoy ens
sembl Ã©e
Ġcin Ã©ma
resp ond
Ġpl ate
Ġvicti me
Ġcomp ar
ĠMar tin
uc ation
Ġm Ã©c
ĠÃ©v Ã©
ter re
1 1
Ġv illes
v u
Ġp Ã©t
Ġ ...
Ġmondi al
Ġaff aires
organis ation
Ġindi vid
t ait
Ġti r
Ġch ambre
Ã©t Ã©s
lig ne
iss ant
Ġp sy
ĠdiffÃ©r entes
ti ves
ar riv
Ġco eur
u ct
Ġcont ribu
alis Ã©
Ġimport ante
al og
Ġs Ã©ri
ari o
ĠrÃ© cl
id es
Ġarri ve
Ġs oient
Ġbr as
in dre
lic ation
ĠdÃ©p utÃ©
Ã® le
ux elles
ĠJ uli
Ġd avantage
lis sement
Ġcirc ons
ĠL y
en quÃªte
Ġqu Ã©b
Ġmar che
ĠM a
en tif
ĠsiÃ¨ ge
Ġprincip al
au ff
_ ,
ĠBelg ique
ĠB eau
Ġs tu
ti r
ĠJ apon
Ġbure au
Ġtra d
Ã©t at
Ġscien tif
Ġs auv
titu tion
Ã©s il
Ġsui vi
Ġtrans f
Ġmulti p
Ġdemand er
Ġpat ron
Ġpr i
Ġlang ue
ac tÃ©
minist ra
Ã©r Ã©e
Ġt ran
Ġcert aine
ĠcrÃ© er
a el
Ġgagn er
n ie
Ã©d Ã©
un iversitÃ©
Ġ iss
Ġcomp os
d j
Ġf Ã©min
Ġr usse
c ar
ĠC o
ĠC ap
Ġrom an
Ġcontin ue
ĠcrÃ© Ã©
ab s
is ant
Ã¨ que
ob jet
Ġpours uit
Ġmauv ais
Ġs an
er ver
Ġcour t
ĠrÃ©g uli
Ġlut te
oc at
. --
Ġmeille ure
ĠtÃ©lÃ© vision
Ġtrav aille
us er
Ġch an
dess us
ĠB on
Ġprop ose
Ġcl assi
Ġin qui
ĠS tr
oli que
ĠprÃ©v u
ust rie
ĠE lles
Ġet c
ot t
est er
Ġh ors
ĠÃ©le c
Ãª t
ra y
Ġass ure
p t
Ġv ente
Ġres pect
f ier
Ġpr atique
Ãª che
c ent
Ġconf Ã©rence
ĠB our
Ġo cc
Ġretr ouve
Ġren for
% ,
ti g
g le
ĠN ouv
ĠN otre
Ġcor respond
Ã¨ tre
Ġcomm ission
Ġpar lement
b erg
est ation
Ġjou Ã©
Ġc Ã©lÃ¨
op Ã©ration
Ġquat ri
Ġ200 5
ĠintÃ© ress
Ġ ,
Ġ8 0
di ci
f e
Ġpr on
is se
os se
Ġclasse ment
ĠlÃ©g isl
Ã©tu de
ĠdÃ© r
Ġsoci ale
an ie
ĠC et
on ique
f ique
Ġobs erv
ĠBr uxelles
ĠT rois
ĠR ou
c er
Ġquoti dien
Ġneu f
oly mp
Ġs oup
ĠcompÃ©ti tion
aff aire
ri ch
ad ministration
imp ort
Ã ¡
ĠH am
ace ment
Ġangl ais
Ġpeu ple
in ves
Ġquatri Ã¨me
Ġprincip ale
N ous
uis se
Ġab and
Ġmo di
Ġ19 0
Ġmat Ã©ri
Ġcent r
ĠEn fin
Ġf it
ĠP er
Ġaccomp agn
Ã ¶
Ġ3 5
Ġmont re
ĠdÃ©couv ert
ĠC entre
h i
Ġges tion
li min
Ġcontin uer
opp osition
Ġn orm
Ġl y
Ġp orter
Ġli eux
Ġdoc ument
ge ment
ens es
Ġmot s
Ã©t aient
Ġfin ance
Ġliv res
ĠdÃ© tr
re ment
Ġmari age
Ã ¤
Ġpai x
Ġhab itu
Ġ olymp
Ġcons tat
Ġsou ligne
ĠP at
Ġprote ction
Ġindi que
Ġg al
Ġconv ain
ĠthÃ© Ã¢tre
Ġinde x
cri ption
Ġinves tis
Ġtribun al
ĠprÃª t
Ġvi eux
Ġcher cher
Ġdist ribu
ole il
ab il
u Ã©
Ã§ ons
Ġsc ol
ass ociation
ĠrÃ©sul tat
A R
Ġd ra
ric k
Ġpersonn el
Ġspectac le
Ã©r os
ĠdÃ©t ail
Ġpres sion
Ġpour raient
Ġop Ã©ration
Ġpr Ã©p
Ġrel ations
ĠFran c
Ġm as
r un
Ġfil les
ĠCom mission
Ġacc us
h am
Un iversitÃ©
ĠÃ© qu
Ġw as
Ġch ap
Ġsom met
Ġcent rale
Ġoff re
ĠarrÃª tÃ©
Ġdisc ours
A llemagne
ĠP al
ass in
Ġc er
Ġproc Ã¨s
Ġterr or
o f
ni es
Ġchiff re
Ġdom aine
ig nes
Ġre le
E st
ĠP ri
ĠD el
Ġmod Ã¨le
i h
om as
Ġst ation
ĠrÃ© alitÃ©
Ġple ine
y e
Ġno te
Ã©m ie
Ġsur f
Ġp en
ĠCan adi
o tion
ĠchaÃ® ne
Ġc Ã´t
2 5
ra v
Ġc op
titu t
Ġaj oute
ĠG en
Ġann once
Ġch ang
ĠS an
Ġqu in
Ġmand at
I S
Ġinform ations
Ġtu Ã©
arriv Ã©e
m ant
Ġla b
Ġlet tre
c ture
Ġad ministra
Ġh om
Ġm obil
Ġcoup s
Ġal li
k y
Ġchans on
ĠK e
Ġf aud
A C
Ġesp Ã¨ce
Ġretr ait
Ġvi ce
ĠnÃ©cess aire
ul ture
ĠdÃ© li
Ġcr oire
i Ã©s
ĠprÃ©sent Ã©
Ġf Ãªte
Ġcli ents
Ġfam illes
Ġr endu
ĠÃ© lÃ©
Ġc roy
Ġutilis Ã©
n ov
y r
in tÃ©rieur
ul ation
Ġm Ã©m
ig nement
Ġs igne
Ġf us
Ġqu ant
m ine
e aux
g Ã©e
agn ol
Ġ +
Ġju dici
i Ã¨res
Ġaff aire
Ġou tre
Ġm ode
Ġf our
ash ington
Ġretr aite
Ġn our
Ġvoul ait
ĠS ans
Ġprof esseur
ot es
si e
Ġend roit
ĠN or
ĠC a
Ġbat aille
it ter
ist ance
Ġs ent
Ġins crit
Ġbudg et
ous se
Ġfilm s
Ġex cl
er ait
Ġar r
Ġf urent
Ġch anger
ĠT ous
w s
2 00
Ġc atÃ©g
ĠdÃ©m ar
ow n
ĠM i
Ġ4 5
ĠrÃ© forme
ĠR om
ĠreprÃ©s ente
Ġch Ã¢teau
Ġinst all
es ti
Ġorig in
ĠrÃ©un ion
Ã© lection
n et
k r
ro ch
ra c
ĠT or
v a
ĠB re
Ġmilli on
Ġlaiss Ã©
ke y
ĠtÃ©m oign
d u
Ġpi Ã¨ce
ĠO h
ĠCh rist
ul tÃ©
Ġall ait
Ġ uti
ĠW ashington
eu vre
ĠD om
oc cup
Ã©t ab
uc lÃ©
ĠC am
ĠdÃ© l
oir s
Ġparti es
omm age
Ġpopul aire
r Ã¨s
Ġrapp elle
Ġconn aiss
Ã©r Ã©s
Ġob tenu
ĠK ar
Ġfa veur
Ġveu lent
entre r
Ġcr u
Ġm our
in et
ĠHoll ande
ĠS oci
Ġconc urr
Ġvoul u
v Ã©e
y se
ĠsÃ© par
ĠpÃ©t ro
Ġpar f
ĠdÃ© ch
empl oi
Ġtra ditionn
ti an
ĠS c
Ã©n om
Ġ7 0
ib les
ne y
Ġchange ment
4 0
Ġcomp orte
Ġim mÃ©di
Ġb our
ient Ã´t
Ġtri m
ĠCe pendant
ac tu
ĠÃ© lu
Ġcomm erce
ĠJ u
Ġfer a
c Ã©e
ven ir
Ġp atri
Ġsimp lement
uss es
Ġ200 4
en ez
Ġn ul
Ġ âĤ¬
Ġpublic s
fi ce
ĠE ur
Ġs tade
Ã ³
res si
U E
Ġreven ir
ĠP endant
Ġmilli ers
ist an
Ġsur pr
Ġplais ir
Ġt enu
Ġt ar
ac tivitÃ©
ti enne
Ġs im
Ġpour ra
Ġfran c
Ġsupp lÃ©ment
Ġvolont Ã©
Ġt es
Ġv end
ograph ie
Ġti ent
Ġnouv el
inform ation
Ġp ont
ob s
Ġent end
Ġsc Ã©n
ĠmÃ©t h
Ġlit tÃ©r
as i
ende main
Ġpro cess
w a
Ġremp ortÃ©
ĠC omp
Ġquit ter
ar mes
Ġf aute
ĠrÃ©s erv
ĠdÃ©c is
Ġpr ol
u ff
on i
Ġmus ic
Ġph il
Ġex iste
Ġhistor ique
m oins
f ie
Ġv enu
ĠF er
Ġcompr endre
Ġarriv Ã©
A ss
ĠJ eux
ark oz
Ġcom itÃ©
Ġsuc ces
ĠL i
Ġtechn ique
or g
Ġesti mÃ©
ĠdÃ©p utÃ©s
exp l
ĠC as
b as
ĠrÃ©p onse
Ġun ique
ue il
Ġcoup le
Ġfig ure
Ġob jet
es prit
ĠT w
ĠvÃ©r itable
Ġconcern ant
ĠB ro
er ont
Ġali ment
Ġl endemain
ay e
r en
Ġcandid ats
tr ait
Ġent endu
ol a
iss ait
hÃ´ pital
in o
ĠS im
ĠA vant
I N
Ġb le
b res
Ġsp ort
ĠPar lement
itu de
oid s
out es
Ġs omme
Ġfam ili
ort h
ĠdÃ©s ign
Ġm ur
Ġs il
ĠV an
Ġde main
ĠMac ron
ĠR Ã©
Ġp osi
h onneur
d a
Ġdisp on
dj vu
Ã© rop
ĠW illi
ce mment
ĠV ic
ĠPar mi
Ġj eux
Ġcontr Ã´
Ġdirige ants
Ġloc aux
c om
Ġv ert
Ġm Ãªmes
ĠM in
ĠS ec
Ġc Ã©r
ĠÃ©lect or
b it
Ġjourn aliste
Ġb anc
ĠA ir
ĠBern ard
e ct
Ġdisc ussi
Ġis lam
Ġsy mb
ĠC r
Ġcitoy ens
ĠC el
Ġanal ys
arkoz y
di o
Ġchin ois
ouve z
ro Ã¯
Ġag ric
Ġg ri
de mment
ĠprÃ©sid entielle
or n
Ġ18 9
Ã¨ les
Ġrepr ises
Ġam Ã©li
Ġt aille
Ġst yle
ass es
Ã© ment
Ġconc ert
Ġmil itaires
Ġass urÃ©
ur a
Ġn uclÃ©
Ġchois i
av enir
ran ger
Ġrende z
Ġsalari Ã©s
Ġh aute
Ġpay er
Ġch ant
uc ture
k er
ĠT oute
Ġpeti tes
As semblÃ©e
Ġcar act
tÃ© es
on ge
Ġrev anche
olog ue
Ġcomp ter
Ġfer me
Ġex ist
Ġpre uve
Ġprocess us
Ġtourn oi
Ġsa tis
Ġc uis
a vez
ĠF l
Ã©n ergie
ĠrÃ©pond re
Ġconn aÃ®t
Ġmar chÃ©s
ci er
Ġa ider
Ġli re
Ã©r ant
l ande
Ġfai ble
Ġau teur
ou Ã©
ĠEn tre
intÃ© rÃªt
ĠG al
Ġfin i
Ġret ourn
ĠS arkozy
p el
ĠmaÃ® tre
ĠS Ã©n
ĠrÃ© cup
ĠbÃ¢ti ment
Ġj a
Ġconn aÃ®tre
ĠcÃ´t Ã©s
Ġsy mp
Ġn Ã©e
ĠÃ©lÃ¨ ves
man uel
Ġsold ats
ĠÃ©lÃ© ments
au c
Ġid Ã©e
at er
ĠGran de
ĠDon ald
Ġ it
ĠG o
Ġmeur t
g en
ch Ã©e
ĠV er
ĠÃ© lus
Ġban que
Ġcour ant
ĠG uerre
o Ã¹
Ġrac onte
Ġrespons ables
m Ã©es
ĠÃ©v iter
ĠMal grÃ©
el d
ĠSy rie
Ġvo il
i an
ĠG ar
ĠrÃ© par
alis me
ann once
Ġcomp lex
Ġarri ver
ĠrÃ©g ions
Ġdom icile
Ġcapit aine
ra k
man n
Ã©d Ã©ration
it Ã©e
Ġsouh aite
Ġtr ou
ĠcÃ©lÃ¨ bre
urg ence
ĠX I
Ġar mes
Ġpi Ã¨ces
l d
Ġmess age
Ġvit esse
6 0
Ġinter pr
ro ph
il ib
Ġb omb
land ais
ĠTh omas
Ġt re
Ġp au
Ġdi vision
u els
ĠR ome
ĠB as
ĠdÃ©f aite
Ġcar te
iv es
ĠA pp
n a
Ġ3 00
Ã¢ che
Ġgl ob
ĠD is
actÃ© ris
an moins
h ors
ĠC ont
Ġb ande
Ġb ientÃ´t
ĠWilli am
Ġrais ons
ĠC omm
Ġ18 8
Ġphysi que
Ġmaladi e
ar ri
Ġpart out
Ã©r aux
Ġsur v
ind ustrie
n el
ĠrÃ©s eaux
Ġr av
Ġdirec tement
Ġsui vre
ĠC al
Ġfr ont
am in
is Ã©e
Ġf ir
Ã©d er
ĠAu jourd
Ġcar actÃ©ris
Ġpro ches
M P
bo ok
Ġpsy ch
Ġr ob
Ġfr ais
Ġv entes
Ġa ide
Ġn or
Ġve ille
Ġchev al
Ġdipl om
ou e
Ġprob ablement
ĠT oul
ĠJ ack
un is
Ġti tres
en sion
Ġre vient
Ġc ant
ĠG l
ĠD en
ĠPlus ieurs
ap t
Ġc ro
Ġpar is
Ġm oin
ĠrÃ© cemment
Ġd ir
Ġ18 7
Ġlu miÃ¨re
Ġ20 20
Ġparticip ation
Ġa ctions
Ġla c
ĠK h
Ã©t end
l l
Ġcontr aire
Ġpens er
t y
Ġp ortÃ©
esp ace
Ġrac ont
un i
Ġn u
Ã§ u
ĠD Ã¨s
Ġexp ri
O u
Ġma ch
Ġv oud
ien nes
Ġm ine
fic ation
k in
le ur
Ġf estival
f ort
igne ur
oul d
ĠA ut
Ġ200 3
Ġar ch
ĠÃ© dition
ate ment
Ġb oule
2 2
Ġt enir
Ġh os
Ġtu er
ou ter
ĠL uc
ĠMich ael
Ġch ute
Ġapp ris
ĠamÃ©ric ains
Ġrel ation
ĠrÃ©f Ã©rence
Ä Ĥ
Ġparc ours
Ġser aient
ĠA lle
t al
n Ã©e
at te
ĠOb ama
Ġte ls
Ġa Ã©ri
Ġg o
ab b
ri ct
ĠNo Ã«l
Ġpuis se
att end
and re
ul er
lu ence
uc teurs
Ġsoulign Ã©
Ġreven us
Ġat ti
Q u
ĠÃ©p oque
Ġmin im
Ġh auteur
k o
Ġper dre
Ġchiff res
Ġrepr ise
Ġor gan
Ġcri tique
lÃ¨ ve
onn Ã©s
ĠR o
ĠrÃ¨g les
Ġsign Ã©
Ġrejoin t
Ġprincip alement
Ġmeille urs
Ġma xim
Ġdi min
ing s
Ġb re
tis me
n ous
ĠE r
Ġch asse
g Ã©s
ĠnÃ©goci ations
Ġcomp li
Ġentre prise
oule z
u il
aut om
Ġb att
Ġj apon
ĠquÃ©b Ã©cois
U ni
ĠÃ©c ri
Ġcons t
ĠRoy aume
Ġrem ont
Ġtr oupes
Ġmont rer
ro b
Ġad vers
2 1
Ġfait es
Ġ9 0
Ġdur Ã©e
I talie
Ġhe ader
ĠÃ©tudi ants
Ã Ń
ĠA ss
Ġ200 2
alis er
Ġc Ã©lÃ©
ult Ã©s
anc Ã©
gl ise
Ã© dition
Ġm Ã©l
er m
Ġvis age
ĠA s
atta que
Ġcap acitÃ©
ĠF lor
Ġv in
Ġs oi
Ġl ois
4 5
Ġs olution
am i
Ġou i
Ġparti cipe
im age
u ter
Ġmar ch
d y
ĠCert ains
ĠG re
Ġar rÃªt
Ġjournal istes
Ġ/ >
Ġg ui
ĠNouv elle
rÃ© d
Ã©v olution
Ġstat ut
ach at
n Ã©s
ĠÃ© limin
ĠM us
tern et
ĠM es
Ġsui vant
Ġdev raient
is tÃ©
Ġcompr end
Ġopp os
Ġremp orte
at re
Ġdev oir
all on
ra b
ĠprÃ©sent er
igh t
ĠP ays
Ġreconn u
are il
Ġp oids
Ġradi o
Ġb ran
Ġm orte
ven u
Ġphot o
Ġob tenir
del Ãł
tÃ© roÃ¯
Ġc itÃ©
Ġvoul ais
am an
Ġsour ces
Ġprof it
Ġviol ence
E spagne
Ġb ons
l Ã©e
Ġp ert
ver se
ĠN ation
en a
Ġsur prise
olog iques
Ġanci ens
tel lig
app ar
Ġt end
ag ers
Ġsouv enir
ess es
cu le
ĠsupÃ©ri eur
Ġfin al
our ces
II I
Ġ200 1
Ġlarge ment
ĠA h
r ons
Ġcli ent
Ġphil os
Ġcharg Ã©
Ġil lus
Ġpersonn age
Ġs Ã©n
Ġfaci le
ĠvÃ©hic ules
Ġco Ã»t
at a
Ġtelle ment
Ġb us
Ġmus Ã©e
Ġfut ur
Ġv iennent
ac tions
ĠS eu
Ġm Ã©n
he ur
Ġgar s
Ġle ader
Ġpuis sance
Ã©ra lement
Ġref us
ag u
Ġim ag
Ġ199 0
Ġins titu
Ġrec om
Ġr yth
ĠRich ard
aur ais
ab ri
Ġpau vre
Ġposs Ã¨de
ari at
oc key
Ġvale urs
Ġaur aient
un esse
Ġgard er
ati fs
P ierre
y m
Ġgagn Ã©
is Ã©s
Ġc ur
Ġconse iller
ĠQu ant
Ġg rec
Ġv ac
Ġre jet
iss ue
Ġl ignes
our t
Ġartis tes
ĠM er
In s
au di
Ġconsomm ation
Ġr ich
te ments
Ġmilli ard
Ġpossi bilitÃ©
eut ers
Ġmar quÃ©
Ġconfir mÃ©
j ou
Ġtrim estre
Ġf id
j our
op he
ĠrÃ©d uire
Ġemploy Ã©s
ond s
Ġqu art
Ġr ent
Ġex cep
ĠÃ©tu de
T he
ĠC ong
ti ens
Ġconstr uit
A T
Ġimp li
Ġpied s
un itÃ©
ĠF C
y l
ĠFace book
ĠA llemagne
Ġr are
Ġtr uc
Ġcri min
ri en
Ġp ou
re use
2 4
ĠM ain
Ġmont ant
ĠvÃ©hic ule
ac te
ĠA ff
Ġprincip aux
Ġapp rÃ©
aut ant
expl oit
m age
a uss
Ġch ante
ĠLy on
ĠM osc
che ment
Ġcl air
Ġd yn
f r
Ġs ites
se urs
t ta
acc Ã¨s
ĠLa urent
Ġconf lit
ĠTr ans
ĠG i
ur ance
ĠStr as
Ġreg r
Ġdeme ure
ĠÅĵu vre
Ġz ones
Ġqu elle
Ġ erre
Ġpermet tant
ĠJ ose
A g
Ġm igr
Ġb ilan
Ġper form
Ġfonction n
Ġport es
i res
Ġm ent
alis Ã©e
Ġret ard
al ise
Ġg are
d ans
Ġprin cipe
Ġsurf ace
ĠÃ©p ouse
Ġcomm ande
join t
Ã§ a
Ġparticip er
Ġ urb
ĠMar se
ĠrÃ©f ug
ic ations
Ġcent aines
Ġmag as
ĠdÃ©m ont
ĠBr Ã©sil
Ġim ages
Ãī c
u tion
Ġa p
Ġpar lÃ©
Ġeff ic
Ġsupp ort
ĠtÃ©lÃ©ph one
ĠW h
in qui
E N
ĠD onc
au g
Ġr al
Ġqu asi
) :
er te
olog ne
Ġvi a
ĠR Ã©g
h ou
Ġte x
Ġjus tif
qu ie
di er
Ġeur o
Ġconte xte
ol ue
ĠJ ames
ul a
Ġob jectif
ĠvÃ©r itÃ©
ĠÃ©p is
Ã©le ct
o o
Ġch oc
I s
Ġ199 9
Ġgr at
Ġproc ure
an y
Ġmus ul
il lÃ©
Ġriv iÃ¨re
cep t
r ages
Ġac cident
ex c
Ġin ten
en ait
Ġf i
Ġb ate
Ãª cher
Ġv ent
Ġreven u
Ġd ange
u ves
Ã© quip
Ġheure ux
ress Ã©
Ã©rop ort
Ġcaract Ã¨re
ĠB ay
Ġris ques
ĠMais on
Ġprop res
all Ã©e
Ġaccue illi
ĠM ax
env iron
ĠO li
Ġsur veill
Ġdess in
hÃ´ tel
an al
Ġbless Ã©s
ar re
Ġaj out
ĠreÃ§ oit
ĠC Ã´
at oires
Ġchef s
ĠeuropÃ© ens
ass urer
C I
Ġprov in
Ġdev ra
ĠT im
ĠS ainte
Ġsign al
Ġatt endre
Ġcab inet
ĠrÃ©p ublic
Ġson d
Ġcont act
or es
Ġch rÃ©
ĠM ag
for mes
ran ge
ar me
Ġb onnes
ĠÃ©t ape
ric itÃ©
Ġbel ge
Ġr u
ĠDan iel
in ique
Ã©li c
ĠmÃ©dec in
Ġtr aitement
Ġp an
v el
ĠmÃ©c an
Ġv Ã©ri
Ġban ques
qu Ã©es
Ġpropri Ã©taire
Ġstr ucture
m ir
rÃ© g
re uve
entraÃ® neur
ĠS uisse
Ġde hors
al s
2 3
Ġjudici aire
Ġfinance ment
A frique
S I
ot o
m ond
ic a
Ãª que
Ġmin ute
ĠAl l
ĠÃ©conom iques
m atique
Ġ ouverte
Ġf aite
ĠprotÃ© ger
C E
igue ur
Ġense ign
ĠdÃ© cide
Ġa ir
F ran
Ġd anger
ĠJ o
ĠM o
ĠB ri
Ġlanc er
Ġplac es
Ġsoli d
ru ption
ĠÃ©le vÃ©
Ġprin ce
g Ã©n
Ġv oulez
oli e
Ġpuis qu
Ġvoit ures
Ġpubli ques
Ġid entif
ag ence
ĠCl aude
Ġv oire
om bre
Ġfron tiÃ¨re
Ġph ase
8 0
Ġren ouv
ro t
z a
at ur
al bum
ĠfÃ©d Ã©ral
Ġmen ace
Ġserv ir
Ġs ing
Ġbless Ã©
ĠspÃ©ci al
ĠP en
enti tÃ©
Ġpriv Ã©
ĠP ubli
. ,
ĠM aur
a vec
ov a
ĠStras bourg
Ġfinanci Ã¨re
oph ie
Ġen vis
Ġc iel
qu ait
Ġre mis
a ve
t rÃ©
Ġvain que
li eu
Ġsc ru
Ġf ant
Ġconvain c
Ã©t aires
ĠN Ã©
ĠprÃ©v oit
A L
ret agne
g g
rit ure
Ġminist res
k et
ĠÃ ®
Ġsuff is
Ġrejoin dre
ex ist
ĠÃ©c oles
am me
ĠPat rick
m s
ĠÃ© mis
ĠJ Ã©r
Ġac tivitÃ©
as c
ĠPar ce
Ġfall ait
Ġvoul oir
Ġ4 00
Ġac teurs
ond issement
Ġs in
Ġdi v
Ġent our
ch ent
Ġl ien
ĠAng el
Ġreg ret
ĠP eu
ĠW al
c ad
ĠHen ri
Ġper man
ĠP rÃ©s
Ġv olu
ro cher
Ġent endre
Ġmat ches
Ġpro xim
di a
ĠB al
Ġen ti
Ġ18 6
ĠA li
ĠmÃ©m oire
ag ent
Ġdou b
Ġvoil Ãł
Ġper te
Ġp omp
Ġsc ore
ath er
ĠÃ©c riv
Ġp or
ĠgÃ©n Ã©ralement
F A
ag o
Ġpr os
ag nes
g o
Ġconc l
Ġgar anti
d Ã©
Ġtourn Ã©e
Ġprin temps
Ġ199 8
Ġproxim itÃ©
ĠcÃ©r Ã©m
ĠreprÃ©sent ant
Ġch ron
Ġatte indre
Ġmais ons
Ġconte mp
ĠM ay
Ġclub s
enf ant
prÃ©s ident
h er
tta wa
ĠA g
Ġcomm is
Ġp ouvez
Ġor ient
av al
erci ce
Ġr ues
nation al
cu pe
Ġeu t
ati vement
Ġcondam nÃ©
Ġm assi
Ġins pir
ĠcomplÃ¨ tement
Ġrepr endre
as tique
ar o
Ġop Ã©rations
Ġall ons
ĠAc tu
Ġh or
ĠÃ© d
rÃª ts
Ġphot os
Ġc ess
olu tions
Ġsenti ment
en us
Ġcond uit
ĠTw itter
ĠV ers
ag Ã©e
Ġfon ctions
ra Ã«l
Ġph Ã©nom
Ġseul s
Åĵu vre
Ġf ile
Ġ3 3
ti Ã¨me
p it
Ġrencont res
Ġm ic
ĠV inc
ob jectif
Ġjur idi
Ġn aissance
Ġcap able
Ġb aiss
S A
Ġarriv Ã©e
ĠstratÃ©g ie
at Ã©
uss it
Ġter mes
ĠCel ui
Ġsp or
ĠÃ©n or
t Ã©s
ĠreprÃ©sent ants
Ġs oleil
Ġs ensi
u elles
li Ã©
ĠN i
ĠÃ© vent
Ġb alle
Ã©m ission
Ġcomp tes
d on
Ġ3 2
Ġsus pect
for mer
al u
Ġpart age
and es
Ġalle mande
Ġl ic
Ġcommun ication
ĠM ex
Ġenv ie
Ġvis i
ĠP eut
gle terre
Ġenvoy Ã©
ĠÃ©vÃ© nements
o quer
E l
Ã¨ tes
en die
Ġpris es
Ġclassi que
ĠM onde
Ġje unesse
Ġretrouv Ã©
Ã©d ucation
Ġca f
ĠrÃ©alis er
ol f
Ġfran ch
ĠdiffÃ©r ence
ĠE s
ĠSoci Ã©tÃ©
A t
Ġl ourd
Ġc roit
ib li
Ġha ve
Ġm ille
9 0
c a
An gleterre
ĠL Ã©
Ġsa vez
ell ent
Ġtermin Ã©
Ġextr Ãªme
ol s
ar n
enti ellement
Ġmon sieur
Ġpass ant
ĠrÃ© ag
p es
Ġatta que
Ġti ers
Ġprol ong
A M
ĠindÃ©p end
abs ence
ĠT erre
Ġj ui
c an
aut or
Ġchang Ã©
Ġsecond es
Ġapp elle
Ġ3 6
3 5
ĠL ire
ak e
Ġmaj or
ar rÃªt
Ġmen ac
Ġsuiv ante
Ġh ockey
Ġt Ã©l
l ation
ĠR os
Ġdom in
ĠrÃ© t
ĠF Ã©dÃ©ration
Ġpro ven
port s
Ġnum Ã©rique
Ġt ur
ĠÃ©trang Ã¨res
% )
Ġcol lection
ĠdÃ©c ouverte
ĠdÃ©couv rir
ĠR ed
Ġsoci Ã©tÃ©s
Ġcoule urs
Ġloc al
ĠPri x
ĠMarse ille
Ġress ources
Ġeff orts
Ġprof onde
Ġp ois
vi demment
Ġdi vis
ac teur
Ġnom s
Ġc os
Ġcal cul
f er
ĠrÃ©v Ã©l
lÃ© gu
ven ue
Ġexp Ã©rience
Ġsc and
ĠC ent
Ġcomm iss
Ġob tient
av ance
ĠdÃ©s ir
ali for
ten us
Ġ198 0
Ġcont ent
ond es
Ġe m
ĠÃ©trang ers
ĠIn ternet
Ġconc erne
Ġp ape
Ġdiffic ultÃ©s
ress er
ĠB ur
tit ue
ĠrÃª ve
b on
ĠrÃ©cl am
Ġrespons abilitÃ©
Ġrecher ches
Ġbr Ã»
ĠPubli Ã©
Ġt ort
m oine
Ġcommenc er
Ġenv ers
Ġid Ã©es
Ġloc ale
Ġenv ironnement
ĠrÃ©guli Ã¨rement
par avant
alog ue
Ġatt ent
7 0
ang es
ie use
env ironnement
Ġch im
ĠBr un
Ġlet tres
it ent
oin t
ĠO s
ĠnuclÃ© aire
Ġav ions
Ġparticip Ã©
ar rÃª
anci enne
Ġcap ital
Ġcircul ation
Ġpersonn ages
Ġquit te
li quer
Ġcommun aut
ri mer
Ġmag az
Ġorganis Ã©
li ers
ĠBer lin
Ġd on
ustr alie
Ġfor cÃ©
ĠR Ã©s
Ġciv ile
Ġex tra
ons tr
Ġt endance
Ġdis cip
ĠÃ© di
tÃ© ph
Ġacc usÃ©
ĠrÃ©f Ã©r
Ġdis ait
N C
ĠGeor ge
ĠD im
Ġdisp osi
Ã©s ie
Ġb Ã©b
Ġconc ours
Ġs ouver
off re
Ġc oin
ĠRe g
tionn el
Ġbr ut
Ġcri tiques
Ġgra ve
c te
m ation
Ġm u
Ġtomb er
O M
ĠÃ©ch app
ra Ã©li
Ġs oins
ĠB os
uct ures
ĠW all
ĠV i
Ġeffet s
Ġprop osition
Ġins tr
ĠfranÃ§ais es
Ġcol on
Ġclim at
Ġital ien
Ã´ mage
l ine
Ġprofessionn els
ĠCh aque
Ã§ ait
ON U
Ġmont rÃ©
Ġgar dien
Ġfab ric
ĠMain tenant
y a
Ġs en
g yp
ou er
Ġcoule ur
Ġtot alement
Ġd o
d o
ole t
A D
Ġgr Ã¨ve
ui r
Ġanci enne
Ġpoursui vre
inst ant
Ġau teurs
C l
A P
Ġr ay
ĠEm manuel
Ġfr ag
Ġsoci aliste
ĠA uc
ĠMosc ou
is p
S aint
Ġ15 0
ali tion
t oi
B C
ĠsÃ© ance
Ġav is
Ġtrans form
Ġt yp
Ġrecom mand
Ġfr Ã¨res
imp orte
Ġlesqu els
Ġtable au
v o
di ction
Ġch auff
ĠGr Ã¨ce
ĠAl ain
" ),
ĠChris tian
ĠdÃ©p enses
Ins titut
Ã©t ranger
ĠAnd rÃ©
l ing
Ġrest ent
Ġcomp osÃ©
ĠT er
ri ques
it z
ul g
Ġexpl oit
Ou est
Ġ out
Ġde tte
Ġfinanci er
ill a
ĠE h
Ġcoll Ã¨g
ĠdÃ©v oil
ĠdÃ©velopp er
ass ade
ou reux
oil Ãł
Ġp age
F rance
Ġc oupe
m y
ĠV ol
Ġmauv aise
de au
Ġsec ret
ur ation
Ġa ra
Ġquit tÃ©
i tions
ĠcatÃ©g orie
av ons
Ġpriv il
az z
Ġp iste
es sion
Ġperform ance
Ġacc Ã¨s
ĠD er
Ġfaud ra
as te
Ġp a
h in
or y
Ġcin qui
Ġenc our
ĠF r
Ġpr ati
it t
ig er
Ġti rer
d en
Ġt ab
en di
l ait
h iver
Ġcol Ã¨re
ĠMad rid
Ġconc lu
e reur
Ġ u
Ã´ ne
Ġrep ort
Ġtra fic
app elle
v ue
ĠM ur
Ġter mine
ĠLe ur
ĠN ice
Ã©m ique
ĠO Ã¹
Ġrencont rer
at ures
Å ł
it ch
Ġchans ons
ag on
Ġtemp Ã©r
aur ait
ĠdÃ©c Ã¨s
oc ation
j u
Ġa x
se ction
2 6
in ture
Ġti t
ĠI talie
Ġdiz aines
p in
Ġbl oc
ĠÃ©tab lis
ĠdÃ©f endre
Ġcomp Ã©t
tionn aire
c y
Ã©cu tif
ou ill
Ġgl ace
ĠA f
ĠP ers
Ġtech niques
Ġprom is
A ut
Ġconsid Ã©rÃ©
for mÃ©
Ġsau ver
v itÃ©
re ts
ograph ique
Ġa ime
Ġprofessionn el
Ġrepr is
m ans
ĠS tÃ©ph
Ġtent er
ĠS m
ĠmÃ©dec ins
Ġ ant
ĠD ou
Ġlim ite
Ġrec ru
m ise
ti Ã¨res
Ġmanifest ants
Ġgar Ã§on
ĠprÃ©sid ence
Ġmunicip alitÃ©
utilis ation
i Ã©e
Ġc ens
iv al
Ġmunicip al
ĠM oh
Ġconn aissance
or ld
Ġt ente
ĠR og
ĠdÃ©pl ac
b il
Ġar ticle
ri ers
Ġpar ole
ĠrÃ©c omp
fi Ã©
Ġb u
U R
Ġt op
ĠnÃ© anmoins
Ġanim aux
Ġexp Ã©ri
ĠQuel ques
Ġdist ance
Ã©v Ã©
r ation
ensi ve
ĠP i
ĠrÃ©c ol
out h
Ġp ire
v Ã©s
Ġtrav ailleurs
ĠB o
Ġcinqui Ã¨me
ĠG er
Ġmeur tre
Ġrec ours
an es
ain tes
g in
7 5
Ġtrans p
Ġ3 4
Ġconstr uire
Ġoffici ellement
ĠrÃ©d uction
ĠrÃ©f lex
Ġa re
ĠC onc
Ġnature lle
O R
Ġre mettre
ĠÃ©c ole
Ġdou ce
Ġimpos sible
Ġpar ois
i ale
ĠÃ©n erg
ĠJose ph
ĠprÃ©sid ente
aid er
Ġen ne
ont o
Ġdis ting
Ġch Ã´mage
Ġcom te
ĠGu y
Ġchamp ions
is h
ĠB or
tionn elle
Ġmus ici
d ay
Ġven ue
ĠB ru
ĠE c
Ġesp Ã¨ces
Ġdans e
) ;
ales tin
Ã´ ts
Ġven ait
ĠcÃ©lÃ© b
re e
ĠM et
n y
ti ennent
ĠprÃ©cÃ©d ent
ĠW est
O S
Ġmoin dre
Ġtrait Ã©
ĠI II
v an
en ci
Ġrece voir
Ġpos t
ĠÃ¢ ge
ĠimmÃ©di atement
ĠeuropÃ© ennes
Ġid Ã©
Ġentre r
z z
ĠV oi
Ġdis ent
ĠBour se
oun d
c les
Ġv aut
ĠF ab
ĠcrÃ© Ã©e
ivers aire
t tes
o Ã¯
Ġ197 0
Ġren se
Ġsec ours
di um
ĠBan que
ur Ã©e
ĠmaÃ® tr
onn Ã©e
Ġcons titue
ĠÃ©lec tr
ĠH ong
ĠT ou
Ġ7 5
Ġpal ais
ul l
Ġg oÃ»t
ul p
2 8
te lle
ĠT om
ĠA ux
Ġtomb e
Ġm y
che c
Ġconn ue
Ġreg arde
Ġab ord
ouve au
Ġdev enue
Ġesp agnol
Ġr iche
Ġalle z
Ġh ommage
exp Ã©rience
Ġaff ront
Ġdi ver
Ġpour ront
Ġregard er
Ġmour ir
Ġrec ue
b an
ĠFranc is
Ġcons ul
esp Ã¨re
ci te
Ġ18 0
app r
Ġc re
ent ure
ĠCl ub
Ġcanadi en
u k
Ġse ction
Ġlo ge
Ġpr Ã©d
Ġcon dition
Ġcant on
Ġ ign
ut Ã©e
rap he
Ġdis s
ri es
Ġparten aires
Ġcanadi enne
ony me
it a
a Ã©roport
. -
Ġin tit
Ġv iens
ĠprÃ©s ents
Ġryth me
ĠrÃ©pond u
Ġsigni fie
Ġport ant
Ġaur ont
Ġdess us
lÃ© ch
Ġoffici elle
ĠsÃ©ri es
Ġciv il
ĠF estival
esp oir
ĠTh Ã©
av aient
Ġch ale
ĠTor onto
Ġsatis f
Ġaff ich
ĠD Ã©s
Ġscru tin
Ġg agne
ĠVinc ent
E mp
Ġp ose
yp oth
ĠconsÃ©qu ences
ĠV otre
2 7
ĠGu ill
Ġbat tu
Ġun iquement
Ġten ue
Ġtou che
P h
Ġbes oins
Ã©ra ble
t oine
h Ã©s
Ġimport ants
Ġf aux
Ġann onc
ionn ats
Ġenreg ist
Ġactu el
Ġvis ant
og ne
Ġren v
au gment
Ġvainque ur
au f
Ġb oÃ®
ĠL ab
Ġtou chÃ©
exploit ation
r os
Ġ18 5
Ġdist rict
ĠN ap
te in
Ã©ric ains
Ãī glise
Ġatt ribu
Ġviol ences
Ġtent Ã©
Ġplan Ã¨te
Ġscientif ique
Ġdis cu
ĠMar k
ĠR ay
Ġconf ront
Ġs ert
Ġconc ent
Ġ17 9
ve ille
Ġtr ente
Ġbar re
Ġtravail lÃ©
Ġs it
Ġpr ess
Ġc ach
Ġoc cident
Ġmo teur
Ġsyndic ats
ai mer
r in
Ġob jec
Ġmor ce
ĠJus qu
Ġ3 8
ĠÅĵu vres
Ġref usÃ©
Ġcentr al
ibli oth
ol o
Ġfer met
Ġf oule
Ġmanifest ations
Ġen ch
ĠcÃ©rÃ©m onie
ĠC rÃ©
Ġcel lu
Ġm ens
acc omp
Ġsout enir
ih ad
Ġplac Ã©
Ġdisp ose
Ġj et
Ġcar b
ĠdÃ©f ic
ĠCh ambre
el li
z on
ĠS tre
y an
ĠsupÃ©ri eure
Ġdu c
im ag
ĠB ill
Ġf en
Ġrepr end
ne au
ĠD urant
ge ois
ĠC ity
ĠS ar
ĠdÃ©c rit
ĠVic tor
ĠprocÃ©d ure
Ġrencont rÃ©
Mar ie
Ġconcurr ence
Ġrasse mb
di que
Ġac quis
Ġce inture
ĠT re
Ġvisi teurs
Ġpropos Ã©
Ġdiscussi ons
f ord
Ġp ut
ag Ã©s
ĠV e
ĠnÃ©cess aires
Ġdoc uments
Ġfor mer
ĠdÃ©f i
ĠgÃ©n Ã©ration
Ġex ac
Ġh is
ub e
ĠV oilÃł
Ġactu elle
Ġbat tre
Ġ its
m Ãªmes
in ion
Ġp Ãªche
Ġsim il
E ur
ĠAn ne
ĠdÃ©f end
ĠprÃ©v ue
ĠJ ourn
Ġj ardin
6 6
is on
2 9
Ġapp ro
ÄĤ Åł
Ġpermet tent
Ġpl ainte
Ġag ents
Ġb oul
uit es
ĠS il
op Ã©ra
Ġp oll
ĠAn dre
me ub
Ġfor tement
us h
ĠB ert
" ...
h or
Ġcontemp or
am Ã©li
Ġdisp os
ch t
Ġvict oires
Ġven us
Ġocc asion
Ġcirc uit
Ġmanifest ation
Ġt ue
Ġav ance
adi o
ann Ã©es
Ġvis ion
ĠAff aires
. )
ĠprÃª ts
Ġprot est
B as
Ġconn ais
Ġ3 7
Ġchange ments
Ġp eau
ĠpÃ©tro le
Ġpos tes
Ġloc ales
p our
Ã©ri te
ĠF e
Ġcomb ien
ĠX X
Ġcons ult
j us
ĠrÃ©s erve
qu in
Ã¨ lement
se ur
li ge
Ġscien ces
arch ite
m on
Ġar riÃ¨re
Ġpoin te
ĠÃ©tab li
ĠmÃ©d aille
Ġr amen
ob le
E x
3 3
ĠdÃ©p end
Ġ4 8
Ġpris onn
ter r
ĠW il
ĠA frique
ĠTur quie
Ġp Ã©r
Ġst ock
s ace
Ġpar quet
uc k
in q
Ġm anger
A u
Ġassoci ations
ustr al
Ġappar aÃ®t
Ġf oi
Ġcal me
Ġpers pec
Ġpublic ation
ĠP et
Ġl ux
Ġconfir me
ri ent
import ance
Ġcond uite
Ġp Ã¢
Ġ199 5
nov ation
enn is
tÃ©ri eure
Ġjapon ais
M I
Ġdivers es
Ġpriv Ã©e
Ġcherche urs
x t
ati n
Ġdev ons
Ġen tier
ĠF rÃ©d
Ġcircons t
oul Ã©e
tr Ãªme
Ġsujet s
Ġ199 7
ĠM ath
Ġinter net
g ue
Ġfor Ãªt
ĠT V
Ġdoi g
vie w
ĠP eter
Ġint rod
Ġ *
ĠÃ©v olu
Ġrec ul
ĠL os
Ġcons cience
ĠdÃ©fin iti
Ġpatri moine
al lÃ©
ĠcÃ´ te
k el
ex tÃ©rieur
E L
ĠdÃ©cl en
Ġdiffic ultÃ©
c itÃ©
ĠL or
Ã©tu des
ĠCar l
Ġeng agÃ©
Ġtrouv ent
Ġv ise
Ġtrouv ait
Am Ã©rique
ĠU ni
co ol
Ã©c l
Ġpati ents
Ġent rÃ©e
ci a
Ġdiz aine
Ġconse ill
C e
Ġpl ans
Ġprocure ur
Ġal lÃ©
Ġord re
Ġp ierre
Ġcomp t
oy en
Ġsais ons
s es
Ġmal heure
rit an
Ġcy cl
Ġal s
4 8
imp ression
ail li
Ġg end
r omp
w ay
Ġcom tÃ©
Ġdistribu tion
Ġter res
Ġm it
Ġpil ote
ch en
ĠspÃ©ci aliste
i ment
Ġdyn am
Ġmagaz ine
ĠÃī c
Ġvac ances
v ait
Ġmai rie
Ġempl ois
Ġst atis
ĠM ul
Ġcath olique
ĠP Ã©
ut ation
Ġe aux
Ġmen Ã©
I RE
ĠM oi
Ġsau f
Ġav er
Ġis raÃ©li
Ġre lÃ¨ve
h Ã©r
u f
um Ã©
Ġju gÃ©
Ass ociation
Ġs aint
ĠÃ©v o
ou che
Ġam en
os ph
aiss ent
ĠdÃ©tail s
ad is
olog ies
ĠCol omb
Ġsurveill ance
ĠprÃ©p arer
Ġs Ã©v
Ġass urer
Ġsil ence
Ġref use
Ġad ul
Ġfin ir
ar ticle
ĠsÃ©ri eux
iv re
Ġbon heur
rie z
3 7
ense ignement
Ġv Ã©cu
ĠS av
Ġviv ant
Ġmont agne
ĠfrÃ© quent
ĠrÃ©alis ateur
Ġmen er
Ġre ine
Ġm ad
e ction
c teur
ĠToute fois
um er
ati e
Ġprof ond
Ġinf Ã©ri
Ġte lles
Ġsu it
ĠL ac
o ol
ĠS ous
ĠCor Ã©e
j a
Ġa mp
os Ã©e
Ġco ord
ĠGeor ges
Ġav ocat
ĠÃ¢ gÃ©
ritan niques
in iti
Ġmarch and
Ġp Ã©d
ven tions
orde aux
Ġenti Ã¨rement
ĠdÃ©clar ation
ĠdÃ©fense ur
Ġcri me
cu per
ces sion
ĠG ir
f ense
ĠsupplÃ©ment aires
Ġac qu
Ġau paravant
y g
di te
Ġprogram mes
ar is
ĠintÃ© g
Ġport Ã©e
Ġcon ver
Ġqu anti
Ġn ette
Ġw ill
i ant
ĠD ire
ĠSÃ©n at
Ġs Ã©d
Fran Ã§ois
ĠB le
Ġmont er
Ġrappel Ã©
ĠPour tant
ĠJ on
ĠM un
Ġd oule
Ġdou ze
Ġhum aine
f t
ĠrÃ¨g le
Ġp es
Ġlesqu elles
Ġsoci ales
oi le
ĠH er
Ġes c
Ġscol aire
Ġ( +
Ġpap ier
ac o
Ġcom Ã©
ĠC at
Ġrelig ieux
_ .
res sionn
Ġm Ãª
ĠL Ãł
Ġolymp iques
Ġchan teur
Ġcaf Ã©
tr onom
Ġfinanci ers
Ġapp are
Ġdispar u
Ġvas te
cont re
it ations
ĠSim on
g Ã©es
Ġcont ra
Ġbl anche
res sions
di ens
Ġinvestis seurs
Ġabs olu
n o
Ġd rog
Ġport rait
ĠgÃ© ant
Ġen j
Ġsub i
i ze
Ġm Ã©r
og le
Ġcomplex e
ow s
ĠH aut
Ġrep os
ĠrÃ©sid ence
A b
Ġscientif iques
Je an
ov ic
ather ine
se mble
ĠÃ© videmment
ĠN ations
er se
I B
Ġne xt
Ġobjet s
Ġt ap
ar tiste
Ġmil itants
ĠdÃ©c or
h ier
ĠdÃ©cl are
Ġtra dition
Ġcollab oration
L ouis
ĠAl bert
Ġmod erne
Ġpropri Ã©tÃ©
t an
ct es
or b
Ã©t ant
ap tis
qu ette
ĠbÃ©b Ã©
ĠFran k
Ġ199 6
ug by
Ġn oire
Ġdirect rice
Ġtal ent
as p
Ġ5 5
ĠbÃ¢ti ments
Ġh Ã©ros
ind Ã©p
vi ce
ch on
Ġbien s
ol le
ro v
Ġcl airement
ĠGuill aume
t o
ĠintÃ© rÃªt
Ġr am
Ġ196 0
Ġv igueur
Ġpubli Ã©e
T A
kr aine
t Ã©e
ar ts
ri ble
av ier
Ġnature l
gyp te
ĠM att
ĠD ub
Ġpoursui vi
ĠP ologne
Ġth Ã¨me
in v
and er
Ġconc lus
Ġatt endant
Ġst and
ĠintÃ© rÃªts
ĠB u
Ġcommerci al
ĠMon sieur
Ġco de
ĠCar ol
ĠentraÃ® neur
Ġmain tenir
autom ne
Ġfr oid
Ġver re
Ġre mer
ĠdÃ© di
Ġne ige
Ġsub s
cri p
ĠMon di
Ġin tellig
Ġoff ert
Ġp ages
ĠLors que
Ġtr omp
exist ence
Ġh ad
Ġatta ques
Ġcon ne
s en
ĠrÃ©fug iÃ©s
entraÃ® nement
ĠcoÃ» ts
Ġat h
ĠG ra
Ã©c ri
ĠMar ine
Ġemp run
Ġs l
Ġchois ir
ĠamÃ©ric aines
Ġproch aines
or ies
3 6
m at
er ies
Ġpomp iers
Ġtar if
ĠscÃ©n ario
Ġdisposi tif
Ġil lÃ©g
iti me
ĠrÃ©gion al
Ġprod uire
Ġd at
Ġal tern
Ġco alition
Ġexcl us
ie ur
Ġpar aÃ®t
ĠG h
Ġmen tionn
ĠprÃ©c is
ĠphÃ©nom Ã¨ne
Ġfai bles
ill ages
Ġ199 4
Ġper cent
Ġau quel
Ġmis es
ĠC alifor
ĠfrÃ© qu
Ġutilis er
Ġprof iter
ĠmÃ© tier
Ġpr ennent
it re
Ġb ra
Ġrev ue
Ġd Ã®
ilib re
Ġdu re
ĠE ric
ĠrÃ©v olution
Ġfor mes
ul Ã©e
d ou
ĠVoi ci
re ction
ĠFrÃ©d Ã©ric
" ).
Ġcomm er
f eu
ĠCh ic
a o
Ġsur n
Ã©l o
ĠÃ©tablis sements
enti ne
Ġinc onn
E I
Ġprog ressi
Ġs Åĵur
en e
ĠC oll
ĠdÃ© rou
Ġoffici el
Ġpr ud
ĠAu tre
ĠdÃ©cis ions
Ã©ric ain
Ġre mb
E C
Ġr o
h Ã©m
s ons
ĠV I
3 8
Ġbless ure
ĠCanadi en
ĠD am
Ġen le
Ġolymp ique
" :
Ġbe aux
g a
Ġsyndic at
Ġs cience
ĠdÃ© mission
ĠlittÃ©r ature
ĠAngel es
3 4
ex trÃªme
Ġc ancer
Ġh on
Ġtot ale
is tique
Ġac te
Ġb Ã©n
Ġaf ric
en tin
ter a
ĠXI X
Ġess entiellement
Ġrenouv el
ou ff
Ġd ie
Ã©tab lissement
ass urance
inves tissement
ĠOli vier
ĠV all
Ġcri ti
ĠJ an
ci eux
ĠP ou
ĠGo ogle
Ġm asse
Ġr entrer
ot a
Ġp el
Ġcollec tif
Ġfranc oph
al a
ĠcrÃ© dit
Ġobjec tifs
ĠR ien
ĠR ec
b l
av ion
Ġcat ast
Ġprofessionn elle
ĠnÃ©cess itÃ©
ĠdÃ© te
av ocat
Ġex ig
Ġas si
Ġr ock
Ġ3 9
Ġbate au
ĠR od
ar riÃ¨re
Ġo euvre
d om
m un
ĠB ordeaux
P S
ĠM at
Ġle ad
intÃ© gr
Ġlib Ã©ral
Ġaccep tÃ©
b us
il Ã©
Ġrem ise
Ġre li
ĠmÃ©t rop
Ġvrai e
ĠT ri
anc Ã©e
ĠtÃ©lÃ© vis
Ġdoc teur
ĠP rÃ©
ĠT ra
Ġchev eux
ĠPort ug
ĠrÃ©g lement
emp le
Ġtir s
ĠE spagne
ĠlÃ©gisl atives
ĠS ant
Ġat tention
g Ã©rie
ok e
ĠCon f
Ġch auss
S e
Ġlance ment
Ġar tic
ĠSy l
Ġcomb att
ĠR adio
ĠB ob
Ġst ar
Ġpr atiques
ĠdÃ©f aut
Ġvingt aine
Ġfa me
v ard
Ġr ares
Ġ6 5
Ġmar ge
ĠBl ack
ĠgÃ©n Ã©r
Ġar me
Ġtran qu
Ġmen Ã©e
Ġcuis ine
Ġorganis ation
Ġgros se
ĠprÃ©par ation
a us
oc t
ĠBar c
Ġpro vis
le ctions
Ġfrom section
est es
ĠM el
Ġc oul
ĠÃ©lect rique
rib uer
gh an
ras tr
Ġv Ãªte
Ġcontin ent
... )
ĠP ap
acc ueil
Ġf ier
ĠL ou
ĠC D
Ġdisp osition
Ġvie ille
ose ction
as on
Ġt osection
Ġcent res
Ġmaxim um
Ġti rÃ©
ic o
ric ulture
Ġimport antes
ĠToul ouse
Ġy e
Ġaf ter
k ing
Ġhum an
z aine
ĠrÃ© alise
Ġprim aire
ĠhÃ´ tel
Ġmigr ants
Ġann iversaire
ĠPre miÃ¨re
Ġmom ents
entre pr
ĠJ am
S i
ĠAlex andre
Ġprom et
Ġpartis ans
Ġmas cul
Ġly cÃ©e
Ġesp Ã¨re
ĠD j
ro w
Ġreconn aissance
Ġdoll ar
Ġj oie
Ġam our
Ġsu pr
ĠprÃ© occup
Ġgouver neur
Ġprincip ales
Ã©ri r
4 7
Ġsu gg
Ġlab or
Ġnav ire
ĠC elle
ly mp
Ġvi de
ci ens
Ġrestaur ant
ĠL Ã©g
Ġ199 2
Ġt oit
Ġt onnes
Ġv allÃ©e
Ġl Ã¢
ch estre
Ġtent ative
om mÃ©
l ais
Ġa che
ler ie
oles c
Ġre voir
in n
Ġmaj eur
Ġsout enu
er on
3 2
igr ation
Ġquin ze
ĠN eu
ĠG Ã©r
Ġim age
ĠStre et
Ġtourn er
Ġsit ue
Ġpass Ã©e
rop ri
Ġch ien
Ġmouve ments
Ġsouver ain
ĠmaÃ® tres
ĠH ug
Ġcr Ã©e
ĠTr Ã¨s
ĠapprÃ© ci
Ġpl aÃ®t
d ent
Ġorganis Ã©e
ĠM is
Ġenregist rÃ©
ĠmatÃ©ri el
Ġ- ,
Ġgr oss
Ġcl ass
Ġav oc
Ġch aud
Ġaugment ation
Ġcontr ats
Ã© ter
Ġc erc
Ġempl oi
Ġf re
ĠÃ©ch ange
Ġsal aire
ĠextrÃªme ment
ĠM ah
ĠB i
ist ant
ĠR am
Ġroy aume
Ġag rÃ©
ĠdÃ© lÃ©gu
Ġpas sion
Ġpouvoir s
Ġfond ateur
Ġrappel er
ĠStÃ©ph ane
Ġvois in
ig u
Ġ6 00
ĠMan uel
ĠPh il
Ġ199 3
ĠÃ©lector ale
Ġhistor iques
ĠDim anche
av is
Ġparlement aire
eff et
w ood
ten ue
Ġfaci lement
ĠDen is
in Ã©e
vi te
ar que
Ġn et
oÃ® t
ĠIs raÃ«l
ĠrÃ©d uit
Ġsou tient
ĠBarc elon
Ġbr on
ĠdÃ©mocra tique
3 9
all y
Ġ >
Ġdis tin
n Ã©es
4 4
ĠrÃ© action
ĠMex ique
Ġdesc end
Ġpens Ã©e
Ġble u
Ġatt endu
ers on
ĠS NC
Ġb elles
Ġf u
Ġinf lu
Ġlo gement
ĠdÃ©but s
Ġann on
o euvre
op le
Ġtex tes
Ġbeau tÃ©
Ġartis tique
Ġpos er
ouv rir
ĠY ou
indÃ©p endance
Ã©vÃ© nement
3 1
Ġmont Ã©e
Ġsou mis
oi gne
Ġhum ain
Ġinv itÃ©
ĠD ie
Ġp oly
au re
Ġt ome
Ġpar all
ĠO p
Ġchan tier
Ġcomb ats
Ġac tes
ri che
Ã¢ t
Ġmod Ã¨les
Ġarch ite
Ġd en
Ġoub lier
Ġcar tes
Ġsan ctions
Ġtra Ã®
Ġpens ais
Ġes prit
Ġrelig ion
Ġsal on
Ġreconn aÃ®t
Ġfab ri
M E
Ġr outes
ait es
ĠB erg
t z
R e
Ġp ur
oy Ã©
Ġfond ament
Ġaff ec
Ġloge ments
Ġcomporte ment
Ġch ances
ĠIn s
r ain
h o
Ġtransport s
Ġv ed
ti me
Ġv ague
Ġord in
ĠRe p
Ġle cture
ĠsÃ© qu
m ait
Ġdi am
Ġli Ã©s
N e
Ġradi c
Ġsav ait
Ġsoup Ã§
Ġpol on
ces si
Ġb allon
en z
l ot
Ġcomp tait
ĠF ond
ĠV ir
Ã©lect ricitÃ©
Ġh ui
Ġtr aite
ĠG Ã©n
Ġr ach
ĠNation al
id ence
l Ã©s
Ġse igneur
Ġspect ateurs
ad o
alis Ã©s
Ġbr uit
Ġces se
ĠÃ©vÃ© nement
Ġper p
Ġsp ati
Ġcal end
ro gÃ©
us age
Ġerre ur
ouv re
Ġcent aine
Ġenreg istre
I ran
ĠB ell
y o
ĠL o
D F
Ġexp erts
ali ers
Ġislam ique
Ġg este
Ġdit es
Ġform ula
di r
Ġhum ains
ĠÃ©lec teurs
Ġtechn ologie
Ġt ours
Ġfin it
at o
Ġp anne
Ġp oign
D G
Ġconsid Ã¨re
ĠM erci
ĠSte ph
ter ie
m n
Ġfle urs
Ġaux qu
Ġad joint
ur ait
Ġprom otion
ec ture
ĠS and
Ġs ch
Ġ =
Ġm ob
ri te
tin s
Ġtr Ã©s
Ġmad ame
S S
Ġconse ils
Ġdispon ible
4 9
Ġpolici er
Ġconfi Ã©
Ġdemand es
Ġretourn er
Ġmen tion
ul s
Ġm urs
Ġrep rod
Ġex amen
b urg
Ġl iens
de ur
Ġprivil Ã©g
Ġquar tiers
Ġm ass
Ġpubli e
Ġpass agers
Ġdange reux
Ã©ra p
in k
exp ression
Ã© tiques
A d
h ouse
Ġtu Ã©s
Ġg enti
Ġinter dit
ĠrÃ©f lÃ©ch
ari tion
Ġinstitu tions
Ã©t h
4 6
Ġc ible
Ġar mÃ©e
Ġsyst Ã¨mes
cid ents
ou ch
! "
ĠUni ted
Ġvo ter
est Ã©
Ġtrans ition
ic al
Ġar gu
R euters
i at
lan tique
og raphe
Ġparf aitement
f ices
exp osition
ĠE sp
le m
Ġrapp orte
Ġpropos er
Ġcoup able
end um
ĠChrist ophe
ac u
Ġli Ã©
Ġcons erver
ĠÃ© lÃ©ment
Ġpein tre
a che
ĠlÃ©g Ã¨rement
Ġrep as
Ġdi alogue
ĠfÃ©d Ã©rale
ĠL ong
s ter
arrÃª ter
Ġco Ã©quip
lo sion
Ġsembl ent
Ġde l
Ã©n agement
art h
O rient
ĠrÃ© el
ĠÃ©mis sions
Ġd ame
Ġbou che
! ...
Ġco ach
Ã©l Ã¨ve
Ġ199 1
ĠdÃ©mocra tie
Ġin aug
Ġwh o
ĠmÃ©th ode
ĠB ourg
Ġf un
ĠCong rÃ¨s
Ġf ati
ĠprÃ© cip
Ġaugment Ã©
Ġpouv ant
Ġsuff it
Ġaction n
Ġs olutions
u ellement
ĠF ront
Ġm m
ul le
ĠM il
Ġcour age
o iles
Ġpour rais
Ġde m
Ġc lÃ©
ĠOu tre
ĠAn ton
j i
Ġsour ire
Ġdev ront
Ġlongue ur
5 5
ĠA US
Ġeffectu Ã©
ag a
b i
ĠdÃ©c Ã©dÃ©
Ġexpli quer
Ġm aman
Ġremp ort
Ġfermet ure
D e
Ġfond Ã©
Ġcertaine ment
Ġmag ni
Ġv on
Ġdev aient
Ġpar oles
ĠcoÃ» te
u ant
Ġcomp let
Ġcoll Ã¨ge
imp act
Ġ4 2
ĠdÃ©pl acement
Ġpr Ãªte
Ġexac tement
Ã©p reuve
m o
Ġfra ppe
Ã¨ vre
Ġconserv ateur
Ġbr ill
ĠsÃ» re
Ġouv re
Ġs or
ens er
ĠT unis
An d
Ġsembl ait
iblioth Ã¨que
19 9
ĠAlle z
Ġsec teurs
omm un
ĠBarcelon e
Ġpens Ã©
ĠT ok
Ġlib Ã©ration
tis tes
ch amp
Ġutilis Ã©e
uis ent
ĠcomplÃ¨ te
Ġparticip ants
Ġprop ositions
ĠAUS SI
Ġ ul
Ġcirconst ances
Ġcor ruption
ĠdÃ©fic it
Ġdiff usion
Ġcollab or
in tention
Ġpouv ons
ĠS l
ĠF re
Ġam ie
Ġpr Ã©t
oc r
ir s
ve aux
Ġappel Ã©e
ĠthÃ© orie
ĠL IRE
iti Ã©
ĠCalifor nie
ĠR et
ĠLa ur
Ġal g
Ġmain tien
I C
ord inaire
Ġre par
r lande
ente ment
ĠB ra
ĠRog er
Ġd ram
hou si
Ġpermet tra
ĠC amp
ĠmÃ© tÃ©
Ġcont ro
% ).
ĠBar ack
ĠF ed
ag issait
r ine
Ġrenfor cer
ac cident
ĠdÃ©termin er
ĠDom inique
Ġorig inaire
av es
ĠG illes
t ario
Ġmal ade
Ġbless ures
b onne
Ã´ les
age ments
Ġtr ent
Ġjus que
Ġconsomm ateurs
enf ants
Ġoff rir
inter vention
ĠrÃ©t ab
ab and
Ġvoi ci
Ġ4 9
id entitÃ©
Ġr entrÃ©e
Ġa te
Ã©r Ã©es
Ġpropri Ã©taires
r om
Ġo eu
Ġrep ouss
Ġcouv ert
ch Ã©es
Ġh an
ais es
Ġad apt
ĠsiÃ¨ ges
ex ercice
ar di
Ġf uite
ĠP ic
Ġv esti
Ġchev aux
qu ante
b lement
Ġc i
ĠLe ague
G T
w an
Ġfavor able
am Ã©
Ġar gent
Ġlang ues
Ġ up
Ġf usion
an itÃ©
Ġ198 9
Ġf ans
Ġs oin
' t
Ġinternation ales
ĠGr oupe
us ine
Ġdossi ers
Ġinst ant
ĠrÃ©v Ã©lÃ©
Ġja une
Ġprin ces
ĠH aute
Ġautom obile
un ivers
Ġm ul
al cool
ag og
mbl Ã©e
atta quant
Ġreti rer
Ġattent ats
Ġlanc Ã©e
ĠN ouveau
Ġas tÃ©roÃ¯
Ġdi men
Ġminim um
ec k
Ġconvainc re
hab itude
.. ..
Ġvolu me
ĠSt an
P aul
ath an
Ġfrapp Ã©
Ġremplac Ã©
Ġc ous
ĠrÃ¨g ne
F R
B l
Ġimp ressionn
Ġs m
p lus
ĠÃ© mer
at tention
ow er
Ġdiffic iles
ame di
Ġcon cept
ĠI m
Ġorganis ations
Ġprog ression
Ġpein ture
ĠS tu
Ġg uit
Ġfr uits
B A
Ġfac il
ĠG old
ment ation
A cad
g rand
Ġwe re
Ġre met
ĠAm Ã©rique
Ġcommand ant
Ġh Ã©r
Ag ence
Ġa per
ol Ã©e
Ġsp orti
Ġm aill
ĠrÃ©s istance
Ġsav ais
ĠD E
Ġb rig
ĠM iss
ing ue
I T
Ġm Ã¨ne
Ġprop or
d is
Ġdis ant
ĠBen oÃ®t
Ġc ra
Ġcalend rier
Ġadop tÃ©
p ro
Ġcomm en
ĠRoy al
ĠBrun o
Åĵ urs
Ġg uer
Ġti re
8 9
Ġtou cher
Ġsigni fic
r one
b a
ĠGÃ©r ard
Ġmet tant
ĠTout es
Ġpre v
ti es
j ug
ĠPrÃ©s ident
Ġ8 00
av i
Ġinform ation
Ġmach ine
Ġin gÃ©n
ra ction
Ġper for
indi ce
Ãª tres
Ġadvers aire
crip tions
Ġstu dio
c ore
it aine
ab eth
Ġjuge ment
Ġfin ances
or a
ĠK im
at aires
ci al
ĠrÃ©alis ation
Ġapp orter
Ġfor mÃ©
Ġvois ins
al li
aff ir
6 5
. _
w ard
Ġbl an
b ach
ĠprÃ©cÃ©d ente
ĠPÃ© kin
ĠA mer
ĠP ol
Ġcandid ature
Ġexemp l
Ġv endu
w n
O L
Ġmeille ures
Ġval oir
Ġqualif iÃ©
Ġcon vers
Acad Ã©mie
Ġex am
and a
Ġdra me
ĠdÃ© lic
ĠAr n
Ġ4 7
ant h
Ġdis que
Ġ4 4
Ġwh ich
Ġr ire
end roit
ĠbÃ©nÃ© fice
Ġuti lise
Ã¨ che
ĠDÃ© fense
gh t
D E
oy ez
Ġ er
ĠMar i
Ġtax e
ou re
os itÃ©
Åĵ il
au jourd
Ġinvestis sements
ĠG az
Ġinter rog
Ġau di
Ġplu ie
Ġon ze
Ġsoli de
ĠsÃ© jour
inst all
ĠÃ© ti
Ġun d
Ġfort une
ĠN et
Ġchante use
Ġprog rÃ¨s
ĠO ttawa
ĠCom itÃ©
app lication
Ġdispar ition
Ġs Ã©p
Ġf ur
ĠG il
Ġplate au
ob tenir
D ame
Ġeffic ace
Ġvoi es
ĠTh ier
Ġv ig
ul aires
Ġsal les
ch n
ĠAm Ã©ricains
Ġrest Ã©
ĠrÃ© mun
ĠSec onde
Ġfort es
ĠBar b
ou dre
Ġtour ne
un s
ic tion
Ġmic ro
erv atoire
Ġm agn
Ġen qu
ĠIn f
ĠmÃ©dec ine
ĠH u
ti ble
p Ã¨re
ib ilitÃ©
ur y
ĠQu atre
Ġrespec ter
ĠarrÃª ter
ĠM ilan
ĠvÃªte ments
anal yse
ĠA v
Ġ( -
Ġcond uire
ĠJ oe
Ġrec ense
Ġfl am
Ġcours es
ĠdÃ©c ret
ĠrÃ©flex ion
ĠrÃ©alis Ã©e
ouv Ã©
C an
Ġass ociation
Ġreb elles
Ġfa Ã§
Ġcont enu
Ġapp li
ĠÃ® les
ys Ã©e
Ġall ant
Ġremplac er
Ġf e
ĠP an
Ġw ould
Ġrapport s
ussit Ã´t
ĠconsÃ©qu ence
Ġg Ã©rer
a ments
ĠPers onne
ĠrÃ©v Ã¨le
auv res
ille ts
Ã´ mes
Ġp un
Ġmusul mans
Ġtemp or
ĠActu alitÃ©s
Ġar mÃ©es
ĠrÃ©c it
Ġsupr Ãªme
Ġaccus ations
om pe
ĠC atherine
ar ie
Ġspor tif
Ã©c art
w iller
c tu
ch ester
Ġad ap
Ġanal yse
ĠforcÃ© ment
Ġtrans par
re f
Ġdiri gÃ©
Ġac teur
p i
ac ts
4 2
k h
In tÃ©rieur
U MP
Ġfil iale
ĠB ut
Ġcompr om
Ãīc ole
Ġtour isme
Ġab ou
ĠMi ke
Ġinst allÃ©
Ġm obile
man ie
Ġfonction nement
ĠJuli en
c teurs
Ġchap elle
on f
ĠMon aco
Ġar t
ĠI er
ĠQu elle
Ġrel ativement
ĠC eux
dic ap
M T
Ġfron tiÃ¨res
ĠW orld
or ge
R C
Ġp av
Ġo ver
Ġproch ains
Ġessay Ã©
igne ments
ad op
ĠC N
Ġcompos Ã©e
ir urg
Ġviv ent
Ġoc cupe
ĠMar g
Ġfond Ã©e
el in
emp ereur
L uc
Ġm Ã©rite
Ġdirige ant
our de
ĠL ille
Ġtr iste
8 5
Ġsix iÃ¨me
Ġver tu
Ã©b as
Ġdonn ent
uis ant
lic itÃ©
iter ran
Ġ0 3
Ġfer mÃ©
Ġb o
Ġ25 0
ĠF oot
Ã¢ me
ĠnÃ© er
Ġcircons cription
Ġscand ale
g entine
Ġaccue ill
ĠR ol
ĠAn toine
ĠAng le
ĠL is
Ġentre tien
ĠMar ia
Ġhas ard
ay ant
r al
Ġenv ir
t t
E s
Ġb asse
Ġterrit oires
Ġabsolu ment
Ġ4 6
Ġital ienne
B retagne
onn ant
Ġann uel
ĠrÃ©fÃ©r endum
lÃ¨ te
Ġsou d
Ġr ur
Ġstu p
Ġla tin
b s
Ġpeu p
ĠÃ©nor me
ĠSu per
ĠEn v
ĠC S
Ġpo dium
Ġcommiss aire
Ġcul te
ĠreprÃ©sent ent
Ġesp ace
Ġouv rir
Ġsuis se
O T
Ġar ts
ĠdÃ©p osÃ©
Ġord res
r ans
Å į
Ġpart ager
Ġbure aux
Ġm onn
Ġpri oritÃ©
O p
ĠRe al
Ġf ar
ĠrÃ© jou
or p
en heim
ĠT Ã©l
Ġm Ã¢
Ġmag istr
ĠfÃ©min in
Ġme c
ĠL ui
Ġconf ie
ĠB at
Ġesp agn
Ġf asse
Ġpar fait
ri me
ĠThier ry
in tes
Ġcomp lÃ©
Ġparten aire
ĠInter national
ĠL ux
ĠS antÃ©
ĠA FP
ie uses
ĠRen Ã©
je ct
Ġmagas in
ĠChe z
Ġsac ri
E c
un ion
cri re
Ġf ailli
ĠF N
ĠU S
I A
Ġsolid aritÃ©
Ġsort ant
Ġartic les
ĠPS G
ĠM aj
ap h
ĠQuÃ©b Ã©cois
ĠJourn al
ĠJ ones
Ġmon ument
Ġaut onom
Ġr ig
um Ã©e
Ġrec ons
Ġmultip les
Ġprod ucteur
or ting
es si
Ġrich es
Ġ198 8
ĠM oyen
ĠdiffÃ©r ent
Ġdoule ur
ĠA cc
op t
ĠPas cal
or ce
Ġlog ique
Ã©bas tien
Ġindi c
Ġpert urb
ĠdÃ©mar che
ĠdÃ©b ats
Ġp auvres
Ã©g alitÃ©
Ġm ix
Ġpot entiel
i ance
ĠcollÃ¨g ues
r aine
ĠC H
ĠChamp ionnat
Ġfer ait
Ġja unes
Ġpl aid
og an
Ġessay er
ĠdÃ© tention
att ent
Ġremar qu
Ġfinanci Ã¨res
che v
ro chÃ©
ĠdÃ©velopp Ã©
Ġregr oup
au m
Ã© an
Ġappar tient
ĠAngle terre
Ġb ox
Ġat ten
enti r
ĠboÃ® te
kr ain
j on
ti le
ag nies
ĠGr Ã¢ce
endre di
quis ition
Ġcos tu
E sp
i al
Ġcl assÃ©
ĠrÃ¨g lement
d s
ĠrÃ©cup Ã©rer
Ġtransf ert
Ġb io
Ġpl ong
ay er
obil ier
Ġchron ique
ant aine
ĠprÃ©v is
Ġas tronom
Ġciv ils
Ġdev rais
ar iste
ĠMad ame
Ġpati ent
Ġop Ã©ra
ĠenquÃªte urs
ĠG au
Ġre vi
Ġ19 50
th er
Ġutilis Ã©s
Ġinv itÃ©s
Ġlut ter
Ġterrit ori
id a
Ġcl asses
ti ls
eu ve
Ġman che
or Ã©e
Ġsub st
Ġde b
Ġlead ers
Ġv aisse
e use
ĠC ro
Ġcons iste
Ġas pect
Ġr ugby
Ġrespec tivement
Ġreconn aÃ®tre
Ġfle ur
est ations
ĠÃ©v oque
imp Ã´t
Emp ire
Ġdrog ue
Ġth is
ĠprÃ©sent ation
% ),
Ġpl a
Ġinter ne
inf luence
Ġfaud rait
Ġmo tiv
Ġdir ait
id itÃ©
4 3
ĠMon te
ĠrÃ© formes
Ġni veaux
A ustralie
Ġsupport ers
m osph
Ġun itÃ©s
Ġpas sionn
Ġ12 0
Ġv ole
Ġperfor man
Ġmat ern
Ġju ges
ĠrÃ©gion ale
Ġorgan ise
ĠCÃ´ te
ri min
Ġsurpr is
ĠAu g
Ġ8 8
ĠL ar
ĠÃ©pis ode
ĠM Ã©d
Ġv Ã©g
Ġso vi
ĠS ol
Ġocc as
ĠprÃ©v enu
ai es
Ġdra pe
ĠF illon
Ġach eter
Ġp ure
Ġapp roche
Ġh u
ĠS amedi
Ġprov oquÃ©
aur a
Ġc ime
ĠM as
ĠMarc el
Ġlong ues
Ġc ents
ĠÃ©p ous
Ġjur y
Ġb ag
Ġam ende
ĠM Ã©l
Ġag ent
ĠI V
Ġcour te
ens Ã©
ĠT ch
Ġne w
ĠJ osÃ©
Ġ197 5
ĠtÃ©m oins
aisse z
Ġfourn ir
Ġcomp agnies
Ġvol s
Ã©cur itÃ©
M ich
Ġhe in
Ġquar ts
l on
Ġlaiss ant
Ã©v iter
Ġr ume
Ġ4 3
Ġaugment er
ak istan
aimer ais
Ġv an
ĠPortug al
Ã©g al
Ġgu Ã¨re
ĠindÃ©p endant
anc el
n ant
ĠtÃ©m oin
rop he
ist oires
ate d
Ġb ourg
A F
Ġnav ires
ver n
v Ã©es
ĠC omb
Ã©ri ques
Ã©ch app
roy able
lic ations
Ġs ki
Ġd orm
Ã©c onom
Ġchac une
I R
Ġli Ã©es
Ġphilos ophie
ĠHen ry
ĠR io
Ġboul ot
Ġinter view
O C
Ġfle uve
ĠamÃ©li orer
os h
ĠlÃ©g Ã¨re
Ġprod ucteurs
Ġmet tent
Ġhan dicap
Ġs oign
Ġco opÃ©ration
Ġex ige
4 1
Ġconsac rÃ©
ĠC os
Ġph ras
ĠP oli
Ġpopul ations
ĠdÃ©r oule
arri ve
Ġmar ques
alu ation
Ġdispon ibles
Ġpersonn alitÃ©s
7 7
Ġt w
meub le
ĠGr en
Ġtr oupe
Ġf onde
ĠB ach
Ġroy ale
Ġapp ort
Ã©t ation
Ġf Ãªtes
ro vi
Ġin n
ĠF ig
Ġach et
Ġr usses
ul sion
Ġbron ze
m itÃ©
Ġgri mp
ĠdÃ©n oncÃ©
Ġdur able
Ġremp orter
ĠvidÃ© os
Ġ198 6
ĠO k
Ġdiff usÃ©
ĠEn suite
Ġr ose
Ġres semble
ĠG ui
Ġh yd
ĠV ar
ĠMaur ice
Ġposi tif
Ġav ion
ĠtempÃ©r ature
ens itÃ©
P our
mb er
Ġavoc ats
mi Ã¨res
Ġc m
Ġo ise
Ã© ran
Ġlog ici
Ġb oute
Ġsy ri
Ġj oin
Ġl ait
Ġdev i
ĠV ill
ĠI mp
Ġtyp es
ale m
Ġm ore
Ġdonn Ã©e
Ġr up
ĠdÃ® ner
c el
Ġparten ariat
ĠdÃ©g rad
ĠE li
amb assade
Ġn at
Ġpr Ã©tend
M A
ĠSu Ã¨de
ĠR ac
Ġtrent aine
ĠS tade
Ġcharg Ã©e
Ġmi di
en tion
Ġg amme
ĠPe tit
Ġex Ã©c
mand s
ĠFin ances
Ġpouv aient
Ġpert es
en eur
Ġbe en
Ġsy s
Ġouv rage
Ġpr enant
Ġregr oupe
Ġb assin
ĠprÃ©f Ã¨re
ign on
Ġav enir
Ġch amb
ĠR on
Ġad mis
Ġbal les
Ġvo tÃ©
ĠS in
Ġpriv Ã©s
Ġ4 1
ĠI ci
in ess
ĠprÃ©f ecture
Ġsymp ath
Ġr ass
Ġaccompagn Ã©
ĠH ill
h ommes
Ġmajor itaire
Ġcomp osi
y er
Ġsenti r
Ġexp osition
Ġrec ettes
Ġt Ã¢che
Ġcer veau
ain dre
Ġfisc ale
Ġsuffis amment
Ġt ac
ard ins
Ġc ouverture
ĠS ab
Ġsc ulp
ĠCarol ine
T S
Ġd j
er al
aut oritÃ©
Ġfran cs
actu alitÃ©
arr ondissement
Cl aude
ĠN antes
ĠG abri
Ġemp Ãªcher
Ġre vers
Ġpour suite
ĠChic ago
Ġculture l
Ġstatis tiques
M arc
Ġnom ination
Ġch irurg
ĠTok yo
ĠEx p
ar mer
in aison
ti se
S t
ĠSer ge
Ã¼ r
ar ra
Ġm ys
Ġindivid us
Ġquanti tÃ©
Ġmont rent
Ã¨ vres
p as
Ã©d rale
is sements
Ġsa vent
Ġdi g
onn ais
Ġoccup Ã©
tes se
Ġintit ulÃ©
ĠÃ©g lise
Ġc rit
Ġ1 000
tel l
Ġe c
ĠrÃ©ussi te
ĠCont r
ou i
Ġh i
Ġsp ir
Ġnorm al
Ġmusici ens
Ġre j
ame d
Ġform ule
" "
Ġsex e
Ġsan ction
ent end
Ġt ennis
Ġmar quer
Ġb illets
oli ques
Ġin vent
esse urs
ch ait
initi ative
Ġb aptis
Ġmaj eure
Ġavant age
ĠSt ar
Ġeng agement
Ġvoul ons
Ġ tiss
Ġdonn ant
Ġs oix
ĠÃ© ditions
Ã©c riv
ĠSte ve
Ġlim ites
rÃ© v
Ġsc Ã¨nes
Ã©cu tion
on iques
re urs
ĠA th
Ġex erc
lÃ©g ation
Ġcommand es
Ġtranqu ille
Ġanti cip
Ġconf ond
Ã©ch ange
Ġi ran
Ġh Ã©s
Ġjourn aux
Ġp oule
Ġgra ves
ĠRen ault
Ġprov o
ag ir
Ġtest s
pel lier
ĠexpÃ©ri ment
ag an
Ġthe ir
Ġvir us
Ġnour riture
ĠP y
olog ues
ĠÃ©v oquÃ©
as me
ag riculture
Ġjuridi que
ĠM y
ĠcomÃ© die
Ġl ourde
ĠÃ©cri re
ĠdÃ©clar ations
Ġmon te
f iques
Ġc ardin
Ġf Ã©lic
Ġbr Ã©sil
Ġne z
Ġa Ã®
ler a
Ġdu o
Ġassoci Ã©
enti els
ob les
ĠL im
Ġappr endre
ĠV l
ĠPar k
Ġrou ges
Ġ198 4
Ġperforman ces
ĠM ic
ĠH an
ĠRol and
Ġdi te
Ġv oient
7 1
ĠdÃ©finiti vement
C om
Ġ> >
Ġinternation aux
ĠdÃ©velopp e
Ġdom aines
Ġaccueilli r
ĠmÃ©dic aments
P A
Ġcommunaut Ã©s
Ġb ac
Ġe Ã»t
Ġcin Ã©
Ġbas Ã©
ghan istan
Ġch ape
ĠT op
Ġpl antes
ĠF ern
6 8
illi r
ĠR a
Ġimp act
t he
ĠN os
ĠprÃ©cisÃ© ment
Ġdiscu ter
Ġmatin Ã©e
le z
Ġtechn ologies
ĠÃ©v olue
Ãª chÃ©
Ġpap a
ĠV endredi
ĠK ing
ĠspÃ©ci ale
ĠJ eu
Ġman quÃ©
Ġk g
Ġcons Ã©c
ĠB elle
rone ws
ve iller
ĠOu ais
ĠL ang
Ġ Î
aci fique
Ġdiff usÃ©e
Ġcri mes
Ġpri or
man e
inter pr
Ġun s
Ġre qu
ĠD Ã©c
Ġm esse
T R
Ġv illages
ĠÃ©ch anges
Ġprovis oire
Ġcon gr
ocr ates
Ġgar Ã§ons
Ġmobil isation
us te
Ġax e
Ġsign er
Ġfin ancer
x ic
ĠColomb ie
er ry
al istes
ĠR oi
Ġsond age
h an
ĠP DG
Ġfer mer
Ġp are
d its
app ui
Ġlux e
ĠrÃ©p utation
Ġc ass
ĠmÃ©t ro
g el
Ġexp os
di ct
at aire
op inion
Ġrestaur ation
ĠsupplÃ©ment aire
Ġf ich
Ġh ypoth
Ġc out
Ġten sions
ĠdÃ©couv re
ĠprÃ©sent Ã©e
Ġch or
Ġara be
ensi f
d am
ĠR i
Ġprom o
Ġcon tient
rastr uctures
Ġperspec tive
Ġph arm
um ul
Ġapp uy
oun t
ĠA ussi
ĠC y
ĠPr in
Ġjus tement
Ã©c oise
ĠT ex
Ġapp ortÃ©
ĠÃ©t oiles
Ġprovin ces
ĠM usÃ©e
ĠJus tice
Ġ198 7
e p
ti ge
is Ã©es
ĠdÃ©r oul
d eux
t ures
ex ception
Ġdestin ation
ĠHar per
Ġpe int
ex cl
Ã©l u
ĠastÃ©roÃ¯ de
Ġser ai
Ġca us
Ġb ritanniques
gl om
agn er
Ġmusic ale
ĠQu oi
Ġdj ihad
Ġcompr ends
Ġcomp lÃ©ment
Ġ8 5
Ġinc ar
Ġle ver
Ġa ussitÃ´t
Ġrest era
Ġaccue ille
ĠI t
Ġfer rovi
ĠCons titution
Ġtourn Ã©
ĠdÃ©cid er
Ġfonctionn aires
Ġam ateurs
Ã¨ dent
ne urs
Ġ194 5
ĠprÃ©p are
Ġen tiÃ¨re
rib ue
Ġmagas ins
Ġartis te
c ap
Ġsh ow
Ġmat hÃ©m
ri Ã¨res
Ġm ang
ell a
ĠComm un
Ġpubli Ã©s
Ġoub liÃ©
N H
de d
es e
Ġconn us
Ġlab el
Ġopp ort
si m
Ġpossi bles
Ġmod ern
Ġn ett
app roche
Ġtra ces
ĠK ur
eng age
di enne
agu en
Ġmet ronews
Ġ5 2
Ġpl at
ou f
li p
ol is
Ġchale ur
ĠÃ©le ction
inc endie
Ġpuiss ant
aj outer
Ġam oureux
ĠrÃ©v ol
ĠÃ© par
un er
Ġp ositions
Ġpre uves
Ġposs ession
ĠMan chester
ĠCan nes
ur Ã©s
ve urs
er ves
Ġc oute
Ġ #
Ġac tifs
ĠTou jours
ĠSNC F
Ã¨ ques
6 7
Ã©ti tion
Ġnom mÃ©e
ĠH al
Ã©qu ilibre
ĠLa val
ĠdÃ© ta
aut es
Ġh eur
ĠdÃ©b ute
ĠE v
utilis er
Ġgouver nements
Ġind isp
d Ã©m
olÃ© on
Ġprisonn iers
Ġ194 4
ĠXV I
Ġaim Ã©
Ġem men
or ient
Ġinter p
r ome
ard o
Ġport ent
Al sace
ir ent
as tÃ©roÃ¯
acc us
r ue
Ġar bit
Ġfond ation
Ġtr ains
Ġpar vient
eff ec
Ġtit ulaire
f ond
Ġprend s
Ġsa ou
ic an
Ġappr end
E t
Ġchamp ionnats
Ġmis sions
ĠreprÃ©sent ation
ival ent
Ġconcl ut
Ġcomp osition
Ġcharg es
ĠJ Ã©s
c omp
Ġsus cep
Ġce ci
Ġimp orte
Ġfu ture
fin ale
ĠÃ© pr
P D
Ġ198 5
Ġcongr Ã¨s
imp os
ĠVall s
Ġpl af
m it
ail s
ob e
ven us
Ġexpli c
Ġdestin Ã©
ĠSm ith
Ġsusp ension
ĠÃ© mission
Ġpay Ã©
ĠR iv
Ġban lieu
ent endre
Ġr omp
Ġf an
in ton
E d
ĠMont pellier
Ġadul tes
h r
A lex
ĠrÃ©s olution
Ġpl ay
Ġdocument aire
u z
ĠW i
en eurs
g ra
ĠT on
en is
ĠprÃ©f Ã©rÃ©
ĠBeau coup
Ġar bres
ĠMondi al
ĠdÃ© d
6 9
ĠS w
ĠrÃ©ag i
h ip
Ġ198 2
Ġpr ime
Ġprof itÃ©
Ġwe b
ĠWilliam s
Ġcon ception
o che
ĠY ves
ill y
ĠS ports
Ġbran che
C A
Ġthe y
ĠÃ©pis odes
let te
ĠrÃ©d action
Ġc enti
Ġtomb Ã©
Ġdiscussi on
Ġlieu tenant
ad resse
at ti
ĠMar oc
ĠN av
omm Ã©e
Ġac t
p re
oc cuper
ĠV en
ĠCanadi ens
Ġenreg istr
qu ants
Ġter rible
Ġ194 0
Ġ os
Ġr entre
Ġv Ã©tÃ©
g i
hÃ´ ne
Ġadvers aires
b or
h al
Ġpa use
ĠSteph en
ais ons
Ġfais aient
ouill ard
8 8
Ġfran co
ĠT rav
ap es
ĠcaractÃ©ris tiques
Ġunivers itaire
ĠKe vin
Ġli Ã©e
ĠgÃ©n ie
Can ada
ĠS Ã©bastien
ĠAn gl
Ġbudg Ã©taire
Ġclim atique
Ġagric ole
ĠLux emb
0 5
Ġparticuli Ã¨re
mb ler
ĠMc C
Ġtour istes
Ġconc erts
en nies
ĠR este
uis e
Ġan c
che f
ĠL and
Ġmer veille
m Ã¨re
Ġprincip es
I E
telle ctu
ĠÃ©l oign
Ã© mi
Ġp alestin
Ġ196 8
Ġsuper fici
ĠrÃ©pond it
ĠdÃ© mis
te au
Ġaff ron
Ġexc ell
x it
ord s
ĠdÃ©c ennies
ĠPal ais
Ã©r ences
ab elle
Ġprofonde ur
Ġac tif
ic ale
Ġr atta
u ge
Ġp ic
um in
in cl
ch a
E m
Ġrapp ortÃ©
Ġspir itu
Ġlang age
l ui
ĠC O
av re
of t
Ġconst ate
Ġl arg
ĠbÃ©n Ã©v
Ã©r on
Ġimm ense
Ġass ist
Ġmaladi es
Ġexp ort
ĠTim es
Ġg Ãª
ĠÃī tat
end rait
Ġsouvenir s
ĠdÃ©p asse
ĠM ass
ag Ã©es
Ġpar u
Ġdisp uter
Ġdestin Ã©e
Ġdiscip line
erb ro
s eu
ĠEn core
ĠMar tine
Ġ$ .
Ġde g
Ġre de
M on
ĠP res
ĠEur opÃ©
Ġved ette
r Ã¨
Ã©ch elle
tr age
Ġfabric ation
Ġcr aign
ĠSe ine
te z
ad el
am er
Ġfall u
ĠdÃ©p it
8 7
Ġparc our
ch auff
c ons
ĠrÃ© di
Ġpublic itÃ©
ĠApp le
Ġa ient
Ġ el
ĠF ort
Ġpar ent
ĠD iv
Ã©r ait
Ġar tif
vers Ã©
ĠcompÃ©t ences
Ġnav ig
Ġso eur
Ġv Ã©lo
Ġsign ature
Ġg re
ĠAuc un
act rice
Ġm os
Ġcommande ment
ĠG ri
j Ãł
un n
tr on
ĠAd am
Ġh y
Ġcime tiÃ¨re
ĠJus tin
Ġin tellectu
ĠS ix
ff e
ĠR Ã©volution
Ġcom Ã©di
Ġpr it
Ġsom bre
V ous
Ġiss us
Ġtermin er
Ġpil otes
s ch
Ġsecond aire
le ct
ĠD Ã©b
Ġcath Ã©drale
Ġterror isme
ve y
ĠO ff
z i
ĠchaÃ® nes
Ġmar cher
Ġpouv ais
Ġchap itre
ĠsÃ©n ateur
u ie
ĠrÃ©g ler
ĠJohn son
Ġcer tif
Ġlib Ã©raux
ĠP IB
Ġaccep ter
Ġhaut s
Ġsouff le
Ġautre ment
Ġ198 1
5 9
hum anitÃ©
Ġvoud rais
ĠdÃ©n once
Ġboule vard
ĠV ienne
L E
ĠLi Ã¨ge
Ġ7 00
l ons
or able
ĠR euters
Ġan g
Ġa ustral
Ġsin on
Ġform ations
ou reuse
Ã¨g re
h ib
Ġmaill ot
av enture
Ġvoyage urs
ĠÃ©conom ie
ĠÃ©cl air
Ġcommun iste
Ġinter vention
Ġnot es
Ġpass es
Ġconf ort
oul in
anc y
Ġrup ture
Ġcl Ã´
Ġendroit s
h om
Ġmunicip ales
ĠReg arde
Ġcar rÃ©
Ġus age
ĠsiÃ¨ cles
g ie
b our
Ġdoub lÃ©
er nes
Ġmon Ã©taire
Ġqualif ication
organis me
Ġsucces si
ĠdÃ©p Ã´t
Ġaff ect
eur o
Ġb ri
ĠN ad
Ġrelig ieuse
Ġancien nes
Ġcert es
Ġinc ap
Ġconseill ers
Ġrel ais
ĠrÃ©v olu
ĠR T
ĠstratÃ©g ique
Ã©c riture
ĠCr oix
ĠD ar
Ġdev int
Ġesti ment
ĠMar io
Mich el
ĠB ir
Ġloc alitÃ©
omm ages
Ġn ations
Ġaccord Ã©
ay a
abil itÃ©s
Ġfr oi
Ġchin oise
Ġ5 1
Ġrapp roche
In de
Ġcon Ã§
ĠA ub
ĠmaÃ®tr ise
ouv oir
Ġnor mes
Ġr onde
Ġt or
ĠBl anc
mi de
Ġpass ent
Ġv acc
b alle
ile ts
ess entiel
Ġpl age
Ġd or
ĠR yan
ĠÃ©v al
imm igration
Ġphot ograph
Ġde vez
ale tte
5 7
Ġcond ucteur
oute z
Ġvi ande
Ġdynam ique
arch ie
ĠThÃ© Ã¢tre
Ġ Å
ĠrÃ© ellement
Ġs aut
Ġdes truction
astÃ©roÃ¯ des
Ġh aine
Ġpersonn alitÃ©
Ġrem onte
Ġach etÃ©
ĠL ag
Ġblanc s
Ġfix Ã©
Ġlim iter
ĠdÃ©l ai
Ġterror iste
Ġb illet
Ġinf luence
Ġdisp utÃ©
P E
Ġsig nes
ĠT ar
si er
il d
ĠdÃ©j e
ĠrÃ©public ain
ĠL oire
ĠH all
ĠdÃ©tr uit
ĠT ony
Ġconstr uite
augment ation
Ġimp Ã©ri
Ġconserv ateurs
Ġespagn ole
Ġno ter
Ġfort s
Ġdiff us
Ġappel Ã©s
ĠN ik
Ġhe ct
Ġuti le
Ġl oy
Ġ198 3
all en
l as
ĠBert rand
Ġquar ante
ab e
r Ã¨te
ĠdÃ©ch ets
ĠNew s
il y
eff ic
ĠSc ott
ose x
j amin
ĠIn de
re uves
ar bit
Ġparticuli ers
Ġc ann
Ġlabor atoire
Ġspectac les
S E
Ġser ais
Ġm ol
Ġ5 7
ĠÃ¢ me
ĠdÃ©b utÃ©
ĠT ourn
Ġdi oc
Ġlim itÃ©
Ġad olesc
Ġprof il
Ġsymb ole
ĠMar y
Ġdisp ute
c orÃ©
Ġsal aires
Ġ197 9
ĠDi dier
Ġretour ne
ins truction
Ġparlement aires
Ġf Ã»t
Ġc ord
m Ã©n
ch ard
ĠB retagne
Ġconfir mer
ĠD or
Ġcl Ã©s
Ġrang s
ĠR ock
Ġterror istes
ĠdÃ©mocra te
Ġdi ct
Ġb oire
M ais
Ġo re
ĠÃ©c ras
og ue
5 6
Ġres sembl
Ġconstr ucteur
ĠJe ff
imp oser
Ġm erci
os te
Ã©b ec
ĠC ast
ĠMath ieu
Ġconstat Ã©
Ãª ts
b dom
u mes
Ã¨ vement
ou ille
en reg
Ġcon ven
A ir
Ġbi z
Ġs et
Ã©li e
ĠM ali
Ġsimp les
ĠgÃ©n Ã©
att ente
ĠL am
ĠSer vice
Ġinspir Ã©
ĠM Ã©
U ne
bdom ad
is lam
ac itÃ©s
Ġmess ages
Ã©rie urs
Ġtravail lent
Ġm ac
ĠdÃ©pl ace
ĠGre en
Ġconstitu Ã©
ĠAr t
Ġtourn age
Ġdom es
Ġbou c
Ġconvain cu
Ġe au
Ġfen Ãªtre
Ġcontribu tion
si Ã¨re
onn Ã©es
Ġon e
Ġrob e
Ġcommerci ale
ant al
ĠJus te
Ġ8 9
Ġp Ã©
Ġt ch
Ġappare ils
Ġt roph
Ġen ce
de z
ĠquÃ©b Ã©coise
st ac
Ġscol aires
Ġappar tenant
Ġcam ion
Ã ±
fi eld
ol er
ĠR ap
k ov
Ġcon vention
Ġ197 6
Ġou tils
ure au
Ġterr ains
ĠS he
ro Ã®
ĠrÃ©un is
Ġv erg
ĠLÃ© on
ob lig
ĠN ov
Ġimp osÃ©
Ġgrat uite
Ã©g ard
Ġb ot
Ġpr Ãªtre
Ġten sion
land aise
Ġ urg
Ġ5 3
Ġnette ment
Ġh onn
Ġiniti alement
ĠF ont
Ġsex uelle
ĠmÃ©n ages
Ġmen aces
Ġent er
ĠAn n
Ġh onte
Ġmonn aie
Ġl un
Ġenc ad
Ġg el
ĠZ e
Ġcontr airement
Ġf oss
if ication
Ġpuiss ent
Ġaband onnÃ©
Ġculture lle
qu a
Ġastronom ique
Ġench aÃ®
at ar
ĠBos ton
Ġapp els
eng agement
Ġh istoires
Ġalli Ã©s
Ġca che
Ġpar venir
Ġb ibliothÃ¨que
Ġchemin s
ax e
Ġangl aise
5 8
Ġpl ant
Ġam Ã©n
ul ar
el ler
ĠÃ©cri te
ori zon
uti ve
Qu Ã©bec
Ġrecense ment
O U
Ġ5 4
Ġappel er
ĠmÃ©l ange
ĠMar di
d ont
Ġparis ien
ĠBan k
Ġ5 6
ur rent
Ġbar b
ĠÃ©m o
Ġprogressi vement
Ġpol Ã©mique
Ġautom atique
Ġprend ra
G C
Ġg er
Ġtrou bles
Ġv ot
Ġsp orts
ĠdÃ©li v
ac cep
Ġopp osition
Ġ6 8
Ġb ulle
Ã§ ants
Ã©ric aine
ĠVl adi
ang ers
ing Ã©n
il er
ign er
Ġcomment Ã©
ĠÃ Ĥ
s er
Ġparall Ã¨le
ĠdÃ©p ass
ai m
Ġab at
Ch ar
ĠLuxemb ourg
ĠCl inton
Ġess ais
Ġin ond
Ġin cont
Ġy ou
Ġsou l
9 9
ces sible
Ġposs Ã©d
ĠJÃ©s us
Ġtrav erse
Ġp ain
ĠC ub
Ġf oyer
L aur
Ġprom en
I L
agn os
ĠChar lie
Ġf Ãª
ĠrÃ© elle
audi ence
Ġpr ouver
Ġmass ac
Ġjourn Ã©es
ĠprocÃ©d Ã©
th ur
Ġcr oix
ĠdÃ©p os
ĠC amb
Ġr ive
Ã³ n
ĠI rak
ĠCarl os
ĠrÃ©c ente
Ġplate forme
anim ation
au le
ĠJu an
at or
Ġar ra
Ġjam bes
Ġinter romp
Ġ5 8
Ġfamili ale
D enis
Ġdeg rÃ©s
Ġm yth
ĠCÃ´ tÃ©
Ġemploy Ã©
Ġ6 7
Ġ197 7
Ġmon uments
erv ation
ĠP resse
Ġiss ue
Ġsu Ã©d
Ġv ins
ag en
Ġsui cide
ĠMer kel
5 00
al titude
Ġun ies
ĠS ing
ĠvÃ©ri fier
ĠÃ©g yp
Ġartif ici
Ġorganis ateurs
Ġcam ar
Ġqual itÃ©s
Ġmar quÃ©e
T h
ĠJeu di
app areil
autor oute
ĠbÃ©nÃ©fici er
ĠÃ©le vÃ©e
ue z
ons es
Ġcy cle
Ġcrois s
Ġcolon el
ĠB ab
Ġd ot
Ġrele vÃ©
ci ent
Ġfr aude
ĠPou tine
Ġm eu
Ã¢ ts
ĠB Ã©
Ġtrad uit
Ġsys tÃ©
h istor
Ġprinces se
Ġcontinu ent
Ġr oul
Ġ197 3
it age
ib lement
ĠQuel que
Ġlong s
Ġreven di
ant erie
Ġj eter
ĠMoh amed
Ġ197 2
rie d
Ġsou le
Ġc ig
ĠWe b
enc er
Ã©r as
Ġbanc aire
Ġad mi
ĠV enez
ĠrÃ©serv Ã©
ĠP atri
end es
ĠrÃ©p and
ex emple
ĠR ose
Ġenne mis
Ġabs olue
Ġr ond
Ġpens ent
dess ous
ĠP o
ĠS o
ĠfÃ©d Ã©ration
Ġann uelle
Ġsen sible
Ġre lie
n ow
Ġsep tiÃ¨me
Ġrasse mbl
Ġnation ales
us alem
Ġajout ant
lÃ© ans
id entif
Ġmil it
Ġcomment aires
ĠÃ© chec
ĠC inq
ĠÃ©tab lissement
ĠL NH
6 4
Ġport ait
ĠRay mond
li te
ĠM u
C H
ĠGen Ã¨ve
Ġsatis fait
ĠsÃ» rement
ĠSt and
u alitÃ©
ĠG as
Ġramen er
Ġ197 4
ĠC F
tr y
ĠB ois
Ġracont Ã©
Ġapp lication
ĠX avier
ĠN iger
ĠK en
Ġcitoy en
is ent
ex iste
c ol
Ġallemand s
ĠLe g
Ġpo Ã¨te
et tre
Ġnorm ale
j eu
Ġhab it
Ġarri vent
Ġdu e
in de
Ġcombatt ants
Ġn obles
Ġarr ondissement
Ġindustri elle
ĠS ou
Ġcap acitÃ©s
Ġcatast rophe
uni or
ti bles
ĠlittÃ©r aire
c cident
ol uer
Ġenvis age
Ġv oc
ai b
Ġess ai
Ġparois se
illi on
Ġg ain
Ġfid Ã¨les
Ġfor fait
ĠPro v
je ction
Ġmar ine
ĠBen jamin
Ġpopul aires
Ġm ette
ĠT s
ai gne
ĠclÃ´ ture
onn a
ĠXV III
re y
Ġin tention
Ġenseign ants
Ġsovi Ã©tique
Ġpersonn elle
Ġmagni fique
Ġf act
Ġent rÃ©
li m
f a
Ġch iens
Ġseu les
Ġquasi ment
ten ait
ĠBl anche
inst aller
Ġhum aines
i ro
Ġ â
Ġab out
Ġca uses
ĠE mp
Ġst ations
ot on
0 6
w ick
Ġins uff
Ġtrait er
ĠspÃ©cial istes
ĠMar s
e re
ar te
Ġl armes
Ġprob able
ĠlÃ©g er
Ġ19 30
inform ations
Ġpi ano
ov ie
, --
Ġfile t
Ġac tive
Al gÃ©rie
am Ã©nagement
Ġli qu
5 2
ĠBle us
Ġcerc le
ĠL undi
Ġouv rages
Ġvir tu
Ġfix e
Ġiss u
ĠJ im
Ġb all
Ġsouff re
Ã© par
Ġrest ait
app rÃ©
ĠfÃ©min ine
Ġcin quante
ĠÃ© tions
Ġinf ir
ĠC op
ĠD ur
ĠW ar
ĠreprÃ©sent er
Ġbas Ã©e
Ġ197 8
Ġesp oir
Ġfonction ne
Ġseu il
f on
ĠNor v
Ġcad res
ĠJÃ©r Ã´me
ri ces
Ġp istes
Ġfame ux
ĠaÃ©ri enne
Ġ Ċ
7 8
Ġa idÃ©
Ġh er
att endre
Eur o
ĠLe on
Ġenf er
Ġextra ordinaire
Ġentre vue
Ġye ar
ĠÃ©p reuves
Ġfeu ille
ak h
s is
oli d
Ġindisp ens
Ġcon gÃ©
es c
Ġd ents
Ġt Ãªtes
ili ers
erbro oke
con que
Ġven ant
Ã©ra bles
Ġpense z
ĠN am
ĠLe e
5 1
Ġcellu les
0 3
ĠVir gin
Ġform at
Ġcandid ate
ĠCert aines
Ġav ais
abb aye
ĠdÃ© tenus
Ġtemp Ãªte
Ġmont agnes
Ġav anc
ĠÃ©le vÃ©s
Ġreconn aiss
Ġch ancel
ie f
Ġn az
ĠdiffÃ©r ente
A sie
ĠFig aro
Ġtw o
Ġj oli
lis es
Ġcon Ã§u
enreg istre
ĠRÃ©g ion
Ġz Ã©ro
Ġals o
Ġbanlieu e
ĠN orth
Ġab us
Ġgouver n
ĠÃ©t ais
ul n
Ġprofond Ã©ment
Ġag ir
Ġorganis mes
Ġc oc
Ġtransform ation
ĠdÃ©fin i
Ġins istÃ©
it te
Ġin uti
mosph Ã¨re
Ġdemand ent
Ġcontribu Ã©
Ġcardin al
Ġin tÃ©rieur
ten sion
Ġor b
Ġu krain
rid ge
ĠT F
ro ge
ĠM ercredi
Ġrassemb lement
U N
Ġcam Ã©ra
Ġla Ã¯
ĠFond ation
0 1
ac Ã©
vo die
Ġactionn aires
n elle
ĠW ood
ĠrÃ©ussi r
Ġpos Ã©
Ġvie ill
0 8
ĠmÃ©th odes
Ġinc endie
J ac
Ġmin i
ĠÃ©lectr onique
Ġaff iche
Ġjou ent
v age
Ġmorce au
ganis ation
Ġver ra
Ġad ress
Ġ196 7
Ġc ib
ĠÃ©t age
attent at
ang le
d in
aff iche
Ġca cher
Ġman ip
Ġp ier
ĠintÃ©ress ant
ĠBro wn
ĠS A
Ġparis ienne
Ġbas ket
Ġass is
ĠchrÃ© tiens
ĠPar c
Ġvoy ez
or f
Ġsitu ations
Ġdr Ã´le
ĠF ord
Ġindustri el
Ġf asc
g ers
ĠB ig
Ġcombat tre
il ton
Ġfoot balle
ĠdÃ©mis sionn
ol k
ĠT Ã©lÃ©
t ons
archite cture
ĠH o
ult an
fic ations
Ġconcern Ã©s
ul teurs
ĠP ont
Ġsurv iv
ĠdÃ©par tements
ra lement
Ġpeup les
int rod
Ġl igue
5 4
Ġbl o
Ġm erc
T C
ĠBre xit
arr Ãªte
ĠC R
ti te
5 3
anci ers
Ã¨ ges
ĠVladi mir
ĠL Ã©v
ni Ã¨re
ĠT ay
un t
ĠPl an
0 9
at ch
Ġdi agnos
ĠmÃ©dic al
Ġla st
im a
Ġch at
Ġsec rets
fi Ã©e
Ġten ait
Ġsing le
Ġinstall ations
Ã©lic opt
l ines
Ġferrovi aire
Ġpres tig
ou gh
Ġfl otte
Ġcons erve
asse mblÃ©e
Ġexpri mÃ©
au ph
O ttawa
Ġatt entes
ran te
Ġoblig atoire
ĠrÃ©p ert
ĠC A
Ġconvers ation
end ue
ĠS oleil
Ġsauv et
Ġg e
dou ard
Ġvo Ã¯
h n
Ġconsid Ã©rÃ©e
ĠLors qu
Ġmorce aux
erv Ã©
C O
Ġcap ables
Ġcomp atri
armer ie
ĠM ore
Ġv ag
Ġpai ement
Ã©ro Ã¯
Ġth an
ĠvÃ©r it
Ġsuiv ie
Ġstr uctures
7 6
Ġoblig Ã©
ĠCor se
Ġb ec
Ġarriv Ã©s
tiss age
Ġsyn th
Ġsimil aire
ĠT ot
Ġmati Ã¨res
Ã©ch al
Ġsou ci
ĠM r
Ġsond ages
Ġ5 9
it o
Ġinscrit s
A pp
ĠentraÃ® nÃ©
si eurs
cid es
ĠS un
Ġnation aux
Ġinc royable
Ġproven ant
eng ager
Ġpr ie
ĠDe v
Ġval or
ĠmÃ©dic ale
Ġrep ose
ĠTru deau
il a
c ade
ric ol
Ġappar tement
Ġoub li
ĠtÃ©l Ã©c
in ois
ĠrÃ©p onses
b r
ĠUn itÃ©
om s
ĠChris tine
ĠNap olÃ©on
Ġins iste
Ġtrans former
Ġenj eux
ĠP a
Ġgo Ã»
Ġdu quel
Ġsac rÃ©
Ġremar quer
Ġsy rien
lÃ© matique
Ġdipl Ã´
ou li
ell ation
Ġdoig t
enti elles
lÃ¨ vement
as tre
emp Ãªcher
Ġpl omb
Ġcat al
Ġpouss Ã©
ĠA z
Ġcan al
mÃ©di aire
ĠLib ye
Ġsusp endu
est res
rab ie
Ġpays age
ĠrÃ©gion ales
Ġman ge
ĠÃ©lÃ¨ ve
ĠthÃ© or
ili ation
Ġg raph
ĠN as
ĠDÃ© jÃł
ĠCol mar
Ġfin s
Ġutilis ant
ĠF onds
Ġun i
di es
ĠLib Ã©ration
ĠLa v
ulti me
Ġinter vient
l its
Ġbomb e
enc y
Ġgo vern
ĠrÃ©s ume
en ch
ĠT a
ĠB rad
ĠdÃ©m Ã©n
ul ations
ĠprÃ©sent ant
Ġcrit Ã¨res
Ġj al
Ġun itÃ©
ĠarrÃªt Ã©s
ĠdÃ©g Ã¢ts
ĠÃ©lect riques
tÃ© rie
ĠCh ap
lÃ¨ tes
ram me
Ġpass Ã©s
ier ge
Ġsm art
Ġesp aces
El ysÃ©e
or ph
Ġsenti ments
ĠJ ord
Ġpr Ã©m
Ġ6 4
Ġbas es
ĠB ureau
r aise
7 2
Ġc le
Ġmal ades
Ġvol ant
Ġcin quant
ĠdÃ©sign Ã©
Ġ196 9
qu ier
Ġrespons abilitÃ©s
Ġcar di
Ġtrans mis
Ġs el
Ġ ur
Ġclassi ques
ĠprÃ©sent ent
ais er
ĠintÃ© gr
Ġtax es
ĠtÃ©moign age
oy Ã©s
Ġsold at
ĠD oc
Ġatte ign
Ġs ois
ĠH Ã©
ĠvoÃ¯ vodie
Ġst abilitÃ©
h uit
Ġexempl aires
m al
6 3
Ġmine urs
Ġchamb res
ĠprÃ©vis ions
A f
anti ll
ow e
ur i
ĠrÃ© ussit
ĠÃ©l arg
7 9
ic s
Ġsouv iens
Ġen n
Ġheure use
6 2
Ġsucces sion
I rlande
Ã¨s es
ect ue
ign an
ĠB oul
ĠdÃ© lÃ©gation
Ġ Ð
ĠG MT
ĠH a
Ġrece v
tre r
Ġpouss er
Ġsupp ose
s a
ĠrÃ©guli Ã¨re
Ġcollec tive
m aire
Ġproven ance
Ġp ir
Ġconstitu ent
ing er
Ġag ain
Aut riche
Ġsupp ri
Ġfeu illes
ass assin
C ar
Ġremb ours
g ar
ĠcontrÃ´ ler
oc cupe
Ġpar aÃ®tre
Ġca deau
Ġnoir s
ois elle
end ront
ĠrÃ© chauff
fi ant
ĠC re
Ġutilis ateurs
ĠÃ©p reuve
Ġpro cl
ol fe
Ġb Ã©t
ĠRou ge
Ex p
Ġtarif s
pr its
ĠI ran
ĠS ta
ĠlÃ©g ende
Ġmu tu
Ġgl iss
ĠF I
Ġextr ait
Ã© rance
Ġsau ve
Ġdev iennent
n on
ak a
B I
Ġr att
ĠÃ©n ergie
Ġr Ã´les
ĠWh ite
Ġinter n
Ġten ant
h en
ĠChar l
Ġlib res
ĠCan al
T E
ĠO lymp
Ġh onneur
ĠJ ui
ĠspÃ©ci alisÃ©e
ain ts
Ġdeb out
ĠÃ©l ab
ĠdÃ©s ert
ĠSh erbrooke
Ġpersonn els
ĠFlor ide
ĠFrancis co
ad or
our ce
Ġprom esse
ĠAlle mands
ur ie
P R
Ġagric oles
an z
Ġpo Ã©sie
ĠprÃ©v ention
Ã©c ran
Ġcellu le
Ġfourn isse
ĠP au
ĠÃ©t apes
Ġdiam Ã¨tre
ad ap
ĠL ion
Ġindustri els
Ã©r itÃ©
ĠT al
ĠH or
ĠvÃ©g Ã©t
ĠF orm
Ġretrouv ent
A v
1 00
Ġpauvre tÃ©
0 7
g re
ra h
raise mbl
Ġunivers itÃ©s
Ġvol er
Ġinn oc
let tes
P ar
Ġch i
Ġr ace
Ġj azz
Ġcarb one
ĠA ri
Jac ques
Ġdirec te
ĠJÃ©r usalem
ĠtÃ©m oigne
Ġdisp ositions
? "
ti a
Ġpier res
Ġacc use
Ġrasse mble
Ġt we
Ġdiri ger
Ġfai m
Ġoffici ers
Ġhect ares
Ġdu el
ĠJon athan
ĠF il
Ġerre urs
Ġmultip li
Ġmor ale
le d
T I
Ġaliment aire
Ġass ister
Ġcommenc ent
ĠÃ©c ran
Ġfavor iser
Ġenvir ons
e y
Ġmusic al
Ġ ouverture
ĠI r
adop tion
Ġfl amb
f ils
Ġinc endi
inter diction
Ġf raÃ®
Ġp aie
e ting
ĠSur tout
Ġar mÃ©s
ĠC GT
Ġinf rastructures
ĠIn d
Ġou est
ĠS outh
oe il
ke ting
Ġeff ort
Laur ent
8 3
Ġrare ment
Ã© chec
f red
ĠM and
imp ose
alis Ã©es
Ġ" "
Ġst able
Ġimm ob
ĠJean ne
is si
ĠC ler
Ġmunicip ale
l av
Ġoffici er
Ġcollec tivitÃ©s
Ġl oup
ĠU r
Ġremont er
ĠM ik
il ier
Ġvoi le
ĠC ulture
ĠV os
m ad
min a
Ġa id
Ġ197 1
Ġcon join
ĠPr Ã¨s
ord in
Ġglob al
ĠÃ©tran ge
Ġma de
inf lation
om an
ti les
Ġgl oire
Ġret omb
empl ois
ĠrÃ©s oudre
n am
onn ier
ĠL as
oun try
entre tien
Ġsuperfici e
Ġenv ah
ĠnÃ©g ociation
Ġsocial istes
l Ã©es
Ġm ons
Ġanalys tes
ap tiste
Ġenv oyer
Ġc aval
ĠG a
Ġdipl Ã´me
ĠS erg
Ġaccord s
M ont
Ġfir me
ĠcatÃ©g ories
Ġcoute au
ĠD un
ĠChamp ions
Ġacc Ã©l
Ġorigin ale
Ġmil ieux
ĠgÃ©n Ã©raux
Ġdimen sion
us tin
ĠC ab
ins crit
Ġav eu
Ġcor rection
At lantique
ĠK ong
Ġcamp s
ĠÃ© tr
Ġbar rage
Ġr af
ĠU A
Ã©criv ain
Ġrenfor ce
Ġcl a
oub li
ĠH ier
Ġp ne
ĠprÃ©f et
ĠmÃ©t al
ĠÃ©conom ies
U kraine
Ġqu Ãªte
in verse
Ġquin zaine
ĠprÃ©c iser
pr is
Ġne ur
Ġdorm ir
8 6
Ġde grÃ©
ĠF ar
Ġtraditionn elle
arri ver
indi vid
ĠV iv
ĠpÃ©d agog
Ġautonom e
Ġ7 2
ĠGr oup
ĠS erb
Ġa si
ĠÃ¢ gÃ©e
Ġrend ue
Ġgran di
ĠAuc une
ĠD ix
ĠA ustralie
ret te
Ġgui de
ĠS om
u ch
Ġco ff
Ġeng agements
Ġ Â
ri ons
Ġ19 20
ĠÃ©criv ain
Ġs pr
ocra te
Ġriv al
Ġrelig ieuses
ton es
Ġcamp agnes
R iv
Ġcinquant aine
Ġenf ance
ĠJack son
Ġsymb olique
y st
ci ation
Ġconnaiss ent
ĠprÃ©v oy
Ġli aison
id ae
ĠY ann
ĠDis ney
m aj
Ġdivers itÃ©
off rir
i Ã©es
ĠStand ard
Ġclient Ã¨le
oi vent
m ens
ĠcÃ´ tes
Ġsouhait ent
ĠnÃ©er landais
Ġus ine
os a
7 4
Ġtra h
Ġadministra tif
Ġfid Ã¨le
ĠTex as
Ġd ommages
ĠI b
Ġmassi f
Ġgr is
Ġhui tiÃ¨me
ĠTunis ie
Ġimport ance
Ġdrape au
ol at
ĠS ophie
tÃ©r itÃ©
ĠH ol
ĠprocÃ©d ures
ĠM ans
ell o
Ġfir st
Ġalg Ã©ri
0 4
ĠV ie
exp lique
Ġb il
ĠF red
ĠdÃ©n oncer
Ġpers u
ĠC li
ĠcrÃ© di
Ġin tÃ©ri
t ar
Ġexpl osi
Ġtable aux
Ġh al
Ġsub ir
ĠÃ©tudi ant
Ġfourn it
ouv ent
Ġsporti ve
ĠnÃ© o
Ġport ug
j ourn
Ġpo che
Ġrec ouv
Ġauxqu els
i um
Ġop tion
Ġon cle
Ġp ousse
ĠAb d
ann y
Ġpriv Ã©es
ou ge
Ġchant er
ĠindÃ©pend ante
ĠH el
ĠrÃ©alis Ã©s
Ġsouhait Ã©
Ġcomposi teur
Ġurb aine
Ġsmart ph
Ġapp orte
Ġmor al
Ġchamp s
or gan
Ġpe ople
Ġre tenu
Ġprofes sion
Ġvoy ait
ĠNor man
ĠLou ise
ori al
Ġhos pital
Ġc av
al ors
id ente
R hin
Ġinform atique
Ġcor p
Ġinves ti
ĠD um
Ġprof ite
ĠH Ã©l
Ġoeu vres
0 2
exp rimer
Ġsucces seur
effic acitÃ©
ĠrÃ©flÃ©ch ir
enn y
im es
er o
Ġgr en
cie use
7 3
ouv rage
ĠJ ane
ĠP akistan
ĠL E
ĠfaÃ§ ade
b ri
Ġcour ir
ĠP C
esp Ã¨ce
Ġcr ainte
Ġtra ce
h yd
aw a
lis me
Ġmo teurs
Ġgr oup
auc un
ĠdÃ©n on
Ġex ercice
ĠdÃ©c Ã©d
9 5
oi ff
Ġfer ont
Ġ6 6
Ġgal erie
Ġtemp le
Ġh igh
b al
ĠS auf
ĠDe vant
intÃ©gr ation
Ġpl onge
el se
Ġanim al
M S
ĠtÃ©moign ages
ĠPhili pp
Ġeffec tivement
Ġsupp ression
İ le
Ġdisc rimin
Ġm iss
ĠGabri el
Ġvaisse au
8 4
ĠLib re
Ġdou x
Ġrense ignement
cien ces
Ġdi gn
Ġquar antaine
Ġvoy ages
iterran Ã©e
ĠIs abelle
Ġcontr aint
off ici
ĠB ang
Ġrom ans
ĠLa p
ail lÃ©
Ġass istÃ©
Ġconstitu tion
Ġouv riers
Ġcompli quÃ©
Ġm aires
ac quisition
ĠG all
Ġfor ment
Ġimp Ã´ts
ĠP ress
z y
ĠAngl ais
Ã© f
H Ã´
Ġpens ait
ĠÃ©nerg Ã©tique
are t
re au
ĠgÃ©n Ã©rations
Ġc Ã¢
Ġl ing
il ie
ĠR och
Ġcont est
ĠE ch
Ġpolon ais
au tion
Ġcess Ã©
ĠspÃ©ci alisÃ©
Or ganisation
Ġman quer
exp liquer
ĠB oy
ĠK n
Ġmach ines
Ġbaiss er
ĠJohn ny
Ġes prits
Ġex Ã©cutif
Ġvoy ant
en contre
ĠM ot
Ã©b er
ci o
ĠS yn
ĠtrÃ©s or
Ġth Ã¨mes
Ġliv rer
omb res
Ġac cessible
ĠM lle
Ġrele ver
ĠN ath
Ġmin or
om o
amp leur
atri ces
ĠAl pes
Ġorb ite
Ġinten tions
Ã¡ n
actu el
Ġman ches
Ġtri o
Ġ196 2
Ġqu ad
in Ã©s
ĠB ag
Ġpar ts
ĠL ind
ue use
ĠKar l
Ġvend us
g as
Ġannonc Ã©e
h ol
Ġr atÃ©
se e
amÃ©li orer
Ġcr is
Ġfac teurs
Ġf oulÃ©e
ri a
Ġpens es
Ġsensi bil
ĠÃ¢ gÃ©es
Ġfor Ãªts
ende z
is ode
Ġesp Ã©rer
Ġgagn ant
Ġrend ent
Ġfer mÃ©e
ĠFin alement
rÃ¨ tement
ĠÃ©v ident
ĠdÃ©p oser
Ġtrad uction
ou c
Ġvol Ã©
ĠtÃ©l Ã©s
Ġdoig ts
Ã©di fice
op er
ori z
Ġop tim
Ġprog ress
ĠrÃ©s erves
r oi
Ġs ab
Ġconf lits
B S
Ã¯ n
ĠrÃ©g iment
ĠRac ing
p ire
Ġs inc
ra de
and s
H omme
ann a
ĠMun ich
Ġl is
Ġtr Ã´ne
Ġapp arition
Ġfl ot
u ent
av er
entrepr ises
ĠdÃ©f ilÃ©
Ġjapon aise
Ġmentionn Ã©
f ran
ro c
Ã© ge
ĠdÃ©b arr
Ġplac er
Ã ĥ
6 1
ĠdÃ©je uner
Ġ6 2
8 2
illet te
Ã© les
Ġfisc al
g s
aff ront
Ġvig il
Ġch Ã¨re
ass oci
ĠA sie
Ġenv oie
as tiques
ĠS k
ĠM os
Ġh arc
Ġfr uit
Ġadministra tive
ĠE tat
ti lle
rÃ© nÃ©es
ĠC up
i us
ĠprÃ©s erver
j ac
Ġpr estation
Ġbi ais
v et
Ġb iÃ¨re
ĠdÃ©tr uire
Ġopp osÃ©
Ã©tab lir
Ġrempl acement
ti mis
ĠG Ã©
Ġdess ous
Ġf eux
ĠR el
ĠSar ah
ĠR af
ig an
Ġass ass
gen tin
Ġn oy
Ġajou ter
Ġaffir mant
Ġpolici Ã¨re
Ġregret te
Ġs te
Ġst ress
Ġf au
Ġv olet
Ð °
ĠK i
Ġpron oncer
intÃ© resse
Ġinstr ument
Ġsouv ient
bdomad aire
ĠinfÃ©ri eur
ou ement
Ġconsac rÃ©e
Ġrec onstr
Ġcont ribuer
v ain
ĠdÃ©f aites
ĠprÃ©v enir
Ġtraditionn el
Å Ĥ
Ġcons ens
or at
ĠGaz a
pir ation
N G
ĠdÃ©te c
A lle
ĠR oss
ĠK y
ĠÃ©tu die
Ġj oy
ĠÃ©c ar
Ġact rice
or chestre
ĠrÃ© ception
ĠB art
Ġsui vent
Ġgra v
Ġ196 4
or iste
ĠdÃ©fin ition
an k
ĠÃ©trang Ã¨re
ĠK ir
Ġrume urs
Ġremp li
Ġvis ible
Ġg la
ĠT el
Ġdiri gÃ©e
ĠJuli e
Ġpois sons
Ġconstat er
ĠJ ules
Ġphras e
Ã©r y
Ġs tim
ĠdÃ©voil Ã©
Ġsorti es
Ġd ons
Ġpron onc
Ġme eting
pit aux
ĠBri an
Ġmont Ã©
Ġpoursui v
ĠcompÃ©ti tions
Ġprof esseurs
Ġpsy chi
Ġ 00
ĠÃ©v Ãªque
ume ur
install ation
ĠM ol
Ġ orth
A z
And rÃ©
inst alle
Ġracont er
ĠPro f
Ġorigin al
ĠM ade
az on
s ki
ĠrÃ©cl ame
ĠN ancy
env oi
Ġconcl ure
ra te
ĠmÃ©trop ole
Ã©s ar
In ter
ĠdÃ©lÃ©gu Ã©
ĠconsÃ©qu ent
Ġlic enci
ai x
ie v
Ġob lige
ĠmÃ© tiers
Ġprogram mation
Ġconserv Ã©
Ġou til
Ġtourn ant
glom Ã©ration
g arde
eu e
st an
erc y
l en
Ġsomme il
Ġr as
ĠU kraine
Ġpar lent
Ġf es
Ġcheval ier
ag one
ĠdÃ© riv
Ġcroy ais
Ġconclus ion
Ġlim itÃ©e
Ġvi ve
ĠS erv
Ġpermet trait
Ġcoup er
Ġcour onne
Ġrend us
Ġpoll ution
Ġ6 9
Ġmenac Ã©
S P
Ġreti rÃ©
Ġc asse
ĠÃ® le
Ġ! "
Ġb or
ĠspÃ©ci fique
Ġvois ine
Ġd ames
hÃ©s ion
Ġindivid u
ĠM ons
Ġt un
ĠMÃ©d iterranÃ©e
Ġdram atique
Ġconnaiss ances
Ġconsult ation
ĠL amb
Ã©v ent
Ġpati n
ĠS Ã©curitÃ©
ĠdÃ©f endu
Ã©n aire
pe ur
app ro
An ne
ĠG ard
Ġtermin Ã©e
Ġh iver
ĠprÃ©cÃ©d entes
Ġb ack
ce voir
Ġnature lles
auc une
Ġl ou
Ġremp la
ĠAnton io
Ġin jus
Ġroy al
Ġfav ori
Ġav enture
Ġremar que
ĠC av
ĠI tal
ex Ã©cutif
Ġin tÃ©rieure
ĠContr airement
ĠR u
is mes
ĠÃ© b
eff ond
Ġass assin
ĠÃ¢ gÃ©s
Ġar chÃ©
Ġrec on
8 1
Ġfamili al
Ġfig ures
Ġliv rÃ©
ĠC E
Ġviol ent
Ġcentr ales
Ġ om
archite cte
Ġlic ence
ĠcoÃ©quip iers
Ġcorrespond ant
Ġpass ait
Ġesti m
ĠL et
Ġaffront er
Ġmen a
ĠB oe
ĠnÃ©goci er
Ġmy st
Ġco tis
Ġdioc Ã¨se
qu ettes
le ts
Ġ x
d l
ĠM en
C R
Ġgross es
mbl ay
ur n
ĠdÃ©p asser
Ġconcurr ents
Ġhom osex
ĠX III
ĠCe ci
Ġcomprom is
ĠdÃ©t ourn
Ġs able
ĠdÃ©b uter
ĠdÃ©b ar
Ġc ould
Ġaugment e
ĠIn c
ĠR h
as ile
Ġsen i
ĠM ai
ĠToul on
ap er
ans ion
Ġal ent
Ġan ne
Ġlib ert
me d
Ġoise aux
ak er
else a
Ġiniti ative
ĠC ouillard
Ġdi gne
ĠdÃ©li b
ins on
Ġsuiv antes
Ġaut och
Ġcommerci aux
ĠR ach
Ar ch
ĠÃ©c ologique
Ġf at
Ġ196 5
Ġth Ã¨se
Ġposi tive
Ã©c oute
Ġplac Ã©e
Ġfroi de
ĠCh ina
Ġstat ue
Ġr achat
housi asme
ĠprÃ© cieux
Ġg ro
Ã´ tre
ĠMul house
Ġfig urent
ĠNÃ© anmoins
Ġoccas ions
ĠÃ©ti ez
y wood
Ġpois son
ĠT rib
H en
ĠÃī ric
b el
ĠV is
ĠAn th
Ġcath oliques
ĠV oy
ib re
Se ine
Ġrecru tement
c inq
Ġsais ir
Ġutilis Ã©es
Ġsur mont
ĠÃ©v oluer
Ġpron oncÃ©
ĠprÃ©d Ã©c
ol it
Ġdevi endra
tellig ence
it ale
ĠbÃ©nÃ© fices
ĠDe b
ru ct
Ġ194 3
Ġtech ni
ĠÃ©g al
ĠM od
Ġmodi fier
Ġaim er
Ġapp areil
Ġpr enait
Z Ã©l
ĠdÃ©c ri
ĠNath alie
Ġfacil iter
Ġf iche
Ġpr en
Ġcam Ã©ras
ak i
Ġtrib une
ĠR D
c is
Ġabs ence
ra per
Ġaccus Ã©s
exp losion
Ġpar lant
ĠA p
ut h
ĠSe igneur
Ġalbum s
Ġpar lait
ĠLe w
Ġdemand a
c ommun
oct obre
C al
ĠR ennes
ĠprÃ©v ues
ĠrÃ©ag ir
Ġpratique ment
u lier
Ġ? "
Ã©r ales
ĠGil bert
Ġdes ign
c omme
Ġth Ã©rap
il Ã©e
ĠprÃ©sent es
Ġ194 2
Ġc Ã©der
qu era
ĠP Ã¨re
Ġoblig ations
ell y
Ġate liers
Ġrejet Ã©
Ġred out
ĠdÃ©pl ore
ac cept
Ġrais onn
appel er
abb Ã©
Ġprod uc
ĠÃ©tudi er
Ġ196 6
j o
ĠrÃ©un ir
Ġvi es
tr ont
Ã© lec
ĠJac ob
Ġrec omm
opp os
ĠcollÃ¨g ue
in ant
aj out
Ġparf aite
ĠN at
ĠD uc
ĠM ou
Ġcouv re
Ġst opp
ĠG reg
Ã©v aluation
oun g
Ġph are
ĠrÃ©c ent
r ag
ĠdÃ©m onstr
Ġth erm
Ġob stac
Ġautre fois
Ġgrec que
ĠÃ© tern
Ġno tion
Ġnul le
Ã» te
Ġr ati
N A
Ġamen Ã©
oc Ã©an
ĠV a
Ġg estes
aiss es
as k
Ġoff ensive
Ġvolont aires
Ġab ond
ĠintÃ© grÃ©
feu ille
Ġc uir
Ġmont rÃ©al
ins titution
ĠR ic
inqui Ã¨te
l ay
Ġmauvais es
ĠprÃ© al
Ġca chÃ©
Ġmon ast
Ġcig are
Ġprop ag
Ġh Ã©ri
f aire
pec teur
Ġn age
Ġcour rier
Ġrich esse
Ġaccep te
Ġa ides
Ġconcent ration
Ġde al
Ġper Ã§
ĠK os
mi le
Ġb Ãªte
ti tion
Ġdispar aÃ®tre
ĠPh oto
Ġamb iti
ograph iques
ĠDav is
Ġmont rant
Ġtranspar ence
Ġin nov
Ġref user
ĠF al
ĠM az
ĠrÃ© actions
Ġfrapp er
di eu
Ġf lic
Ġtoi le
Ġs ta
Ġgovern ment
ĠprocÃ©d er
Ġ6 3
Ġt Ã¢
Ġcro ise
ĠÃ©v idence
tionn aires
ĠFlor ence
ĠL oi
am itiÃ©
w ards
Ġs k
Ġcou che
Ġcont enant
Ġ193 9
Ġspor tifs
Ġdonn ait
Ġsauv Ã©
x e
ĠdÃ©s igne
ri ve
Ġj olie
Ġid entitÃ©
Ġbate aux
ĠUn ivers
Ġtour istique
n est
Ġl Ã¨vres
ess ence
ĠL an
ĠD Ã©p
iss es
ĠW ill
ĠTh er
Ġg Ã¢
ĠLa f
O ff
Ġm am
ch et
U L
Ġle vÃ©e
ĠV anc
c ur
h t
Ġmunicip alitÃ©s
N E
ĠH y
ys te
li ance
ĠChamp ionnats
ĠV in
On tario
ĠdÃ©s olÃ©
Ġfour ni
Ġca usÃ©
l itÃ©
F C
occup ation
ĠlÃ©g iti
al o
ĠCh ac
Ġav al
Ġb et
ĠDe m
til lerie
Ġfac ture
y ne
Ġst abil
ub ert
Ġplac Ã©s
u a
ĠÃ© dit
ĠaÃ©ri en
inst ar
ĠÃ©v acu
Ġsav ons
Ġir rÃ©
Ġtr oub
ĠQuel qu
m ique
c lisme
Ġm ou
Ġ196 3
ols heim
ri k
ĠdÃ© tenu
Ġfen Ãªtres
ĠAf ghanistan
hui le
Ġnom me
lis abeth
Ġence inte
ĠdÃ©p utÃ©e
Ġlib Ã©rÃ©
ĠHong rie
Ġmo tif
Ġ195 8
Ġ" )
Ġi ra
ĠD H
Ġsais i
Ġremarqu able
ĠFoot ball
Ġsuspect s
Ġfun Ã©r
Ġcl ar
Ġju ger
Ġse mi
Ġress ort
Ġobs erve
Ġpar d
titu des
ouv ant
ĠS tat
ĠprÃ©c ision
and ais
Ġcommun ications
ĠÃ©cl at
p oli
omb e
Ġath lÃ¨tes
ĠcinÃ© aste
ĠG od
Ġfer ai
cl Ã©s
ĠC ri
z o
Ġcomp ens
ail ler
ĠrÃ©comp ense
ĠNic k
Ġreven dic
Ġillus tr
av ril
i vement
Ġcanadi ens
p ent
ĠC le
Ġav ancÃ©
hab itants
Ġsuc re
ĠBl ue
and o
I G
Ġmi ra
Ġmin es
Ġpar al
Ġgard es
Ġcan on
Ġenqu Ãªtes
Ġsem estre
Ġv uln
Ġpubli er
ĠA ur
Ġti endra
ac er
Ġesti mant
Ġcl aire
it ait
Ġeffectu er
ati neau
Ġvis iter
ĠS und
tes te
Ġatta quÃ©
Ġcr aint
ĠMax ime
om Ã©t
Ġign or
Ġdess ins
Ġfaibles se
Ġp isc
Ġes cl
Ġmar itime
ĠÃ©p au
ĠtempÃ©r atures
t ain
cy cl
ĠÃ©tab lir
ĠTV A
ari a
a ou
ĠP Ã©r
Ġin vite
Ġmar keting
am ende
Ġeffec tifs
ĠE ss
I mp
hum our
ĠmÃ©tÃ© or
ĠD re
Ġeng agÃ©e
h on
ĠU MP
Ġsol o
Ġp areil
ĠComb ien
Ġl ot
m Ã¨tre
Ġencour age
Ġre ten
Ġvolu mes
ĠmatÃ©ri aux
ĠOp en
ĠLe c
Ġexc ellent
Ġmalheure ux
Ġrel ance
Ġconclus ions
tic s
Ġj etÃ©
H istoire
ĠSt ate
Ġral en
c Ã©s
ĠCert es
if e
Ġtent atives
man te
ill Ã©e
Ġtab ac
Ġver sions
Ã©v Ãªque
ĠVal Ã©rie
ĠJ un
Ġjustif ier
Ġsauvet age
ĠSal on
ĠJ O
di os
Ġbou tique
ĠLe urs
Ġcomp ort
mi ques
ang lais
ider ot
u Ã©e
Ġqualif ier
Ġeng agÃ©s
Ġarr Ãªte
ten ance
Ġp Ã©nÃ©
organis er
ĠCh elsea
Ġaut rich
ĠmÃ©di atique
Ġrense ignements
Ġsoix ante
Ġren oncer
le ine
Ġneu tr
ĠA le
Ġdi eu
Ġtroph Ã©e
Ġconf Ã©rences
Ġdesc ente
ĠH eure
V al
Ġouvert es
ĠM ed
ĠP in
Ġatti rer
Ġcou reurs
di ting
ĠP ME
Ġprom ouvoir
o en
Ġcomm Ã©m
Ġg ym
ĠprÃ©c isant
Ġsus c
Ġtomb Ã©e
M C
ĠE ug
Ġemb ar
Ġdev enus
Ġtr agÃ©
ĠPl ace
ĠVanc ouver
Ġautor isÃ©
Ġgend armes
ĠÃ©quipe ments
Ġperp Ã©tu
ĠsÃ©par ation
Ġcon qu
Ġdat ant
ĠmÃ©can ique
Ġinter rogÃ©
Ġform id
Ġchampion ne
en h
Ġchape au
Ġcomp tent
gu Ã©
Ġatte inte
Ġphot ographie
Ġpl astique
Ġcon vient
Ġfootballe ur
ĠComp agn
d ing
ĠN ob
Ġf ine
Ġhos pit
Ġprovin ci
ĠÃ©d uc
Ġguer res
Ġbus iness
Ġv ocation
Ġin Ã©d
ĠsÃ©lection neur
Ġref uge
ĠHar ry
re m
Ġb ond
Ġgu Ã©r
Ġman us
en euve
ĠTre mblay
mi ers
tin ent
Ġti ens
Ġgenti l
ĠchrÃ© tien
Ġcou cher
Riv iÃ¨res
Ġtot alitÃ©
Ġo t
Ġar mÃ©
Ġenne mi
Ġmen Ã©es
Ġent ente
em ark
ĠB onne
Ġcollec te
qui de
Ġinter venir
Ã©cri re
od y
Ġavant ages
ĠB rig
ad apt
ĠÃ©crit s
Ġsa ur
ĠB ol
ĠH ans
iss ante
Ġsex uelles
Ġbour se
Ġver te
ĠXIX e
ĠdÃ©t our
Ã©li te
ĠÃ©tran ger
us ter
Ġpr Ã©nom
ĠrÃ© ve
Ġcompar aison
Ġprov oquer
ĠIn di
Ã©ci le
ĠW ind
off ice
ĠT ant
tic o
Ġtruc s
Ġsus citÃ©
Ġtrouv aient
ĠL CI
enne mi
Ġ19 14
Ġjui fs
Ġinde mn
Ġre ch
si de
acc ent
Ġs ome
ĠsÃ©rie usement
ĠÃ©p oux
Ġtou chÃ©s
Ġtal ents
Ã¨ ler
ĠrÃ©p ression
p ool
Ġbrig ade
N ord
ĠF el
Ġord onnÃ©
Ġag ences
inter national
Ġfavor ables
eu f
Ġti ennent
tis sements
Ġjudici aires
ĠArn aud
ĠrÃ© novation
vi a
ĠsystÃ© matique
en ues
h ypoth
Ġ9 5
ĠXI V
ob us
Ġsitu Ã©s
Ġremar quÃ©
ass ent
Ġst age
Ġphot ographe
Ġdimin uer
ĠAr thur
ĠopÃ©ra teurs
Ġamb assade
ĠSe pt
er oun
enn ie
ĠO ne
ĠrÃ©public ains
Ġsol lic
ĠÃ©c outer
Ġf uir
Ġpr iÃ¨re
Ġr aff
Ġgend armerie
Ġconf id
Ġoppos ants
Ġremp lir
Ġv raisembl
n is
Ġpar king
im s
onn ent
Ġin cident
ĠC ode
id ation
w in
ĠÃ©v olution
Ġav ent
Ġdiplom atie
Ar t
uel a
Ġprod uite
all ais
an isme
Ġpart agÃ©
Ġmod ernes
ĠreprÃ©sent Ã©
Ġqu eue
Ġdemand ant
ĠB ah
Ġinter pel
ĠdÃ©p assÃ©
Ġcon cep
ĠrÃª ves
ĠFor ce
ĠAt t
enf ance
Ġprog ressÃ©
Ġcommerci ales
Ġara bes
ĠB CE
ĠÃ©c oute
ok o
v iennent
Ġpoli ti
Ġenv elopp
Ġme xic
Ġb ain
Ġesp oirs
Ã» re
ĠdÃ© tient
sen al
ĠsÃ©qu ence
ĠCh Ã¢teau
O s
um a
Ġress enti
a oÃ»t
Ġmascul in
Ġnaturelle ment
Is raÃ«l
Ġphysi ques
Ġpopul aritÃ©
Ġmari Ã©
ac teurs
Ġacc ent
ĠPr ince
O h
ĠP alestin
Ġinter ven
ĠSam uel
ri an
uy er
Ġagain st
Ġ0 6
augment er
Ġp ow
Ġmo tifs
Ġfranch ise
ĠPar fois
Ġimp lant
le cht
maj or
ĠbÃ©nÃ©fici e
Ġbiz arre
ĠprÃ© limin
Ġsort es
our age
Ġv int
Ġmod este
lÃ© m
ĠC ond
Ġcondam nation
z u
ĠN ot
ĠÃ©c olog
ĠagrÃ© able
Ġpersonn elles
T V
res sement
ĠF aut
Ġ194 1
Ġvoul aient
ĠIn st
in novation
Ġphilos oph
T P
gn Ã©
Ġad met
Ġla urÃ©
Ġall aient
Ġcin Ã©m
ĠexpÃ©ri ences
O bs
Ġsol aire
ĠF ais
Ġex tÃ©rieur
Ġch o
Ġg ang
Ġcostu me
Ġsp Ã©c
Ġcontempor ain
ĠS Ã©
ĠdÃ©cl in
ir al
N P
ĠAng ela
ĠMor gan
ĠL iv
Ġcl inique
ĠM gr
Ġretrouv Ã©s
h orizon
til l
Ġex trÃ©
Ġprolong ation
on a
ĠrÃ©mun Ã©ration
Ġbomb arde
ĠAb del
ĠJui fs
Ġrecommand ations
Ġvoud rait
Ġsymp t
Ġvie illes
Ġ194 8
ex amen
Ġcontinu Ã©
ha us
Ġsupp orter
ox e
Ġsecond aires
ab is
Ġhaut es
Ġh au
ĠbÃ©nÃ©v oles
ĠP ot
ler oi
intÃ© g
ĠA fin
... ).
Ġl Ã¢che
Ġsal ut
Ġspectac ulaire
Ã©tu di
Ġle cteurs
ĠF land
Ġplaf ond
Ġr at
ĠHam ilton
in age
ĠFran ck
Ġc oiff
ĠlÃ©g itime
ĠNorv Ã¨ge
ĠR ab
ĠF MI
Ġrest es
h os
ĠÃ©tudi Ã©
D es
Ġcherche ur
ĠÃ©t oile
Ã¨ nement
ĠH aw
our ir
ci r
Ġrende ment
appr endre
Ġcl in
Ġf ri
ĠÃ© te
Å ¡
Ġcon quÃªte
ad ore
Ġlib Ã©rer
Ã¨ nent
i rer
Ġtur c
ĠW in
ĠprÃ© te
Ġurb ain
Ġutilis ent
Ġprom esses
Ġmet s
ĠAn ti
ĠCh amb
Ġi rak
ĠDan i
Ġdesc endre
ĠVen ise
Ġmon op
Ġde dans
ĠsÃ© ances
onn et
Ġ" :
end a
f ace
ĠG atineau
' ,
it oy
ĠdÃ©s ire
n d
Ġinstall Ã©e
Ġcul tures
ĠdÃ©fense urs
Ġgard Ã©
ĠprÃ©par Ã©
Ġmer de
Ġpat rou
ribu tion
l oc
ĠDu p
Ġprot oc
ch ette
ĠÃ© chÃ©
Ġsauv age
Ġouv erts
Ġsal uÃ©
out s
atte indre
ĠCh er
ass aut
Ġb aie
Ġvi ole
av ions
r at
tis h
Ġmod es
Ġorganis er
Ġtravers er
Ġsoulign ant
Ġrom aine
ex Ã©cution
ĠBre f
ux ell
Ġassoci Ã©s
Ġattend ent
ali mentation
Ġlaiss ent
Ġ196 1
Ġrel ancer
iss on
ĠL A
Ġgaranti e
er tise
Ġcor rec
Ġdiplom atique
Ġl istes
Ġtap is
ĠrÃ©un it
Ġdestin Ã©s
Ġfus ill
am Ã©ricain
ĠnuclÃ© aires
ĠB es
Ġfrancoph one
Ġab onnÃ©s
u eux
ĠG ro
Ġul tra
Ġcommer Ã§ants
r oix
c re
Ġess aie
ot age
Ġaut o
is ations
Ġguit are
ĠDan emark
Ġrestaur ants
min istre
ĠS oud
Ġcriti quÃ©
Ġst art
Ġwh en
ref our
Ġattent at
Ġann oncer
intÃ© ress
ĠmÃ©d ailles
bil itÃ©s
Ġgen ou
ach eter
om es
ĠS en
chev Ãªque
Mar tin
Ġtra jet
Ġav ancer
Ġrep li
ĠP op
ĠMet z
Ġint o
in vent
Ġretrait es
Ġg ains
Ġinstr uments
An g
es cal
Ġint Ã¨gre
Ġexc ent
Ġh arm
ĠC Ã©sar
Ġdu rer
ĠV Ã©r
Ġ195 9
w ell
he re
Ġ13 0
Ġexcep tionnelle
ĠRo che
d d
ĠlÃ©g umes
um s
ĠÃ©c art
ĠÃ©vo quant
our i
Ġp ist
ĠhÃ´ pitaux
ĠD al
Ġs ale
Ġmanus crit
Ġid enti
Ġnation alitÃ©
Ġcont acts
ĠD iff
ĠHug o
Ġd oul
Ġcompagn on
ĠrÃ©vol te
tu eux
Ġfac teur
ĠÃ©lector al
Ġec onom
Ã¨ tent
Ġf ic
ĠG arde
Ġam or
Ġemb au
ĠdÃ©c al
Ġ194 6
ĠO K
ĠmÃ©n age
ĠrÃ©sid ents
Ġ6 1
Ġtraite ments
Ġmin uit
ac tifs
Ġf olie
ĠS port
Ġhonn Ãªte
ĠindÃ©pend ants
Ġdis sim
Ġhon or
Ġtrou ble
ĠdÃ©s esp
Ġrec r
Ġrappel ant
ĠAr ch
l oi
Ä ĩ
ĠpÃ©ri odes
L R
Ġbatt ant
ĠprÃ©sent Ã©s
Ġfrancoph ones
ul te
anim itÃ©
heure usement
Ġas semblÃ©e
us ta
Ġg as
anti ers
ĠprÃ©cÃ©d ents
Ġl une
Ġaut oritÃ©
ĠdÃ©plac er
aur ai
Ġchois it
Or lÃ©ans
imm y
onc ent
app ren
f eld
Ġglob ale
Ġ195 6
Ġ194 7
Ġmalheure usement
Ġb oss
ĠdÃ©p ens
Ġb oy
Ġtrans mission
ip el
Ġses sion
Ġp ath
ĠrÃ©p li
ar on
Ãª ques
Ġess entiel
ĠdÃ©par ts
mar Ã¨s
ĠK er
Ġl an
ĠrÃ©d uite
tan tin
Ġfais ons
Em manuel
Ã©t ape
Ġadap tÃ©
tr Ã¨s
vers er
Ġb en
Ġautom obil
ins titut
ĠXV II
Ġhuman itaire
ĠL uis
Ġtri p
o cher
ouver nement
Ġg olf
Ġc og
il ien
Ġfl ux
ate l
Ġg rÃ©
ĠrÃ©p Ã©tÃ©
Ġh ar
gn on
Ġf umÃ©e
Ġalli ance
G e
ĠVers ailles
Ġv ents
Ġcop ie
ĠMar ch
Ġgu eu
ĠprÃ©v us
Ġtrait s
ti mes
ri ra
Ġcl os
Ġti me
Ġcr aindre
D I
Ġexclus ivement
Ġch air
Ġconc entrer
ĠrÃ©un ions
Ġimpli quÃ©
Ã© re
Ġparticip ent
en berg
al erte
Ġfailli te
Ġp Ã´le
Ġbase ball
Ġaliment aires
Ġhi Ã©r
Ġcul tiv
ins tr
Ġfa usse
ĠH ouse
Ġmar ins
ĠÃ©t ages
Ġ ).
Ġas c
op age
Ġimm obilier
aiss ait
Ã©p isode
ĠhÃ´ pital
Ġalent ours
Ġconsid Ã©rable
emp Ãªche
ĠdÃ©f is
ĠCub a
oy ers
ve d
Ġdi able
ĠB ow
Ġdom inÃ©
z er
ĠF our
Ġindispens able
exc ell
ĠP rog
Ġqu elles
ri el
ĠR em
as es
ĠrÃ© uss
Ġpleine ment
ĠnÃ©g lig
Ã Ł
et y
Ġson ge
ĠentraÃ® ne
Ġf olle
Am Ã©ricain
Ġoccident ale
an ais
re lle
Ã©quip age
Ġvolont aire
y cl
Ġ( ...)
Ġtr ag
f li
ĠR ub
env oyer
oin g
op a
ĠÃ©c ou
n ing
Ġdjihad istes
au rer
av enue
ald o
ĠR es
ĠH ab
ĠC ir
m Ã¨tres
Ġplaid Ã©
enf er
ĠChar leroi
ĠnÃ©cess airement
ZÃ©l ande
Ġvis ites
Ġchauff eur
ĠD ra
es que
Ġsatisf action
Ġt urb
Al bert
ĠV ieux
Ġ8 2
Ġcycl iste
Ġtent ent
ĠcaractÃ©ris Ã©e
ĠH um
an iste
Ġchim iques
h arm
Ġli quide
Ġad resse
ru p
ouve ment
Ġa iles
Ġlourd s
Ġconsid Ã©rer
r oss
ĠS oit
ĠdÃ©c omp
Ġretrouv Ã©e
Ġ7 8
Ã© en
Ġinstall Ã©s
ĠapprÃ©ci Ã©
Ġt endre
ai le
Ġc ub
enti er
Ġidentif iÃ©
onc tu
ĠcontrÃ´ les
ĠAl sace
ĠB ud
ĠtÃ©lÃ©vis Ã©e
ĠarrÃª ts
Ġcher chent
Ġapp l
qu ets
ĠAnth ony
Ġprov oque
al th
ĠcÃ©lÃ© bre
en chon
ĠD o
Ġp ous
ĠT i
Ġoffici els
ĠSal v
og es
ĠM ir
Ġcont estation
ĠM erc
Ġb andes
Ã©m y
atta quer
Ġqualif ie
Ġcour ts
Ġg am
ĠdÃ©di Ã©
Ġmob ilitÃ©
om a
ĠS aguen
Ġt rot
Ġus ines
ĠLuc as
Ġconsens us
Ġemb r
der lecht
Ġ7 1
in telligence
Ġ7 3
fe ction
Ġinst ance
Ġent ra
Ġput ain
Ġopport un
mb lement
Ġdisting ue
Ġdiver si
amÃ©li oration
Ġre tenir
ĠAndre w
Ġsugg Ã¨re
ĠC onn
Ġimp oser
ĠWal ter
Ġcar n
au tique
assassin at
oin te
M ari
Ġst ars
Ġcomp ose
z iÃ¨me
A G
Ġabat tu
ĠDiv ision
e v
F F
A h
Ġv ues
Ġmar quis
Ġn aÃ®t
si le
Ġab rite
ct s
l ante
Ġc iter
ĠCl aire
ĠU l
iss age
ĠCrÃ© dit
Ġorig ines
Ġrecons truction
Ġpr estations
Ġchar bon
Ġcommuni quer
ĠCor p
tionn els
Ġcous in
Ġtrans formÃ©
ĠC ant
ĠÃ©chapp er
Ġchar me
ĠH ay
Ġcoup les
Ġf out
Ġinterp ell
Ġm ir
m oiselle
vi Ã¨me
ĠL ut
Ġcharg Ã©s
ĠCap ital
ch ons
ĠâĤ¬ .
Ġjoin dre
Ġt y
di ff
Ġtr ompe
che ur
Ġobserv Ã©
O ui
ĠMur ray
Ġense igne
el Ã©
ĠdÃ©sign er
ĠdÃ©c ennie
Ġ7 7
ag eux
Ġdoc tor
Ġinves tissement
Ġ ),
Ġad join
ĠQ atar
inf anterie
Ġpublique ment
Ġpass Ã©es
Ġser re
Ġeff ectue
Ġquel s
al ty
ĠUn ion
ĠM Ã©t
Ġintern autes
G er
Ġr ad
mÃ© ment
ex tra
Ġlogici el
Ġpanne aux
Ġrempl ace
Ġpap iers
Ġmont h
L oire
ĠB omb
ĠS P
Ġser be
r aison
Ġdonn a
Ġconstr ucteurs
Ġ our
m m
Ġ7 4
ch o
Ġac tiv
ĠDam as
ĠCompagn ie
Ġbat terie
ĠprÃª tres
ĠVictor ia
ĠR ad
ĠIs land
Ġmaj eurs
ra ctions
Ġcap t
Ġexcep tionnel
Ġpl ante
Ġpuiss ante
Ġn oble
de rer
ess ai
Ġrepr it
Ġadop tÃ©e
ĠC ris
ĠrÃ© vision
ĠS ui
ĠSerb ie
Ġcoup Ã©
g ure
Ġdyn as
ĠEuropÃ© ens
ins ule
I V
ĠV ati
Ġconc urrent
A rabie
Ġcroy ez
Ġdev ais
Ġr h
Ġmusici en
Ã©v al
ĠAr ts
Ġj unior
Ã©li min
Ġpass era
ĠrÃ©alis Ã©es
Ġcommun al
se c
id al
or al
Ġqu ai
D iderot
Ġ3 50
Ġall Ã©e
Ġrest Ã©e
ĠcoÃ» tÃ©
Ġj oint
Ġspati ale
Ġtran che
qu are
Ġperman ente
Ġs ages
Ġpropor tion
Ġh ong
Ġpal marÃ¨s
p he
ak s
ĠB y
et ti
ĠmaÃ®tres se
Ġj ardins
ĠParis ien
Ġp seu
ĠK at
ig a
pe ction
se pt
ĠtÃ©lÃ©s pect
D T
Ġentour Ã©
Ġinten se
ĠchrÃ© tienne
Ġatta chÃ©
Ġr ois
Ġs iens
Ġadop ter
ĠM id
Ġtrait Ã©s
c Ã©es
Ġfut urs
ĠP ed
Ġperman ence
Ġpropri Ã©tÃ©s
Ġaspect s
ĠBou chard
Ġvis iblement
Ġconn ues
pp Ã©
ang Ã©
Ġ7 6
Ġsuper be
Ġdessin Ã©e
ĠCler mont
ĠBoe ing
Ġ( )
b ack
Ġp onctu
ĠMÃ©l enchon
ĠR y
Ġcou reur
as pect
aill on
Ġp y
Ġlaisse z
s ud
ent ente
uer ite
Ġtar di
P aris
aband on
ĠN BA
Ġcroy ait
Ġr ot
ĠEch os
ros oft
ĠG ab
ĠVenez uela
ĠSh aw
ils on
ĠP ost
ĠT rÃ©s
Ġperspec tives
Ġcondam nÃ©s
ĠNap les
Ġreb ond
f il
Ġb ig
ĠisraÃ©li en
Ġd own
Ġsur vie
Ġsuiv ants
ĠP acifique
Ġapp lications
Ġintrod uit
Ã©r ons
ge ance
Ġoff res
li re
h l
Ġjui ve
ĠMus ic
ĠCol le
Ã©qu ivalent
Ġclim atiques
ĠL in
ĠcÃ©r Ã©b
Ġc ountry
ĠA sh
Ġimp ri
Ġc ite
Ġtue ur
ĠÃ©ch antill
ois es
S K
Ġp Ã¨ler
Ġpe ines
ĠrÃ©c onc
x ion
ĠT oi
ĠC ur
Ġmes sieurs
ĠFranc fort
ĠSt ock
Ġmar Ã©chal
ag as
Ġvers er
Ġch Ã¢
tin a
Ġcar t
ĠM agn
ĠMi ami
Ġop inion
A U
au b
ĠdÃ©c ern
Ġpoursuit es
Ġremb our
Ġr igueur
itÃ© es
ach es
Ġcr ist
ĠFl ash
ĠJ en
ĠD ow
Ġmen u
ĠS us
Ġ7 9
Ġmunicip aux
Ã £
r ari
Ġcann abis
Ġv otes
Ġ$ ,
ĠÃ©g ard
Ġtun nel
ok er
ĠLe v
emp ire
Ġparti cul
ĠsÃ©v Ã¨re
B el
Ġemp re
Ġend omm
onn ance
ĠTay lor
Ð ¾
Ġfranch ir
et nam
Ġord inaire
dl r
Ġs ainte
ĠSch w
ĠK ad
Ġintit ulÃ©e
ĠS Ã©v
Ġp ub
Ġg mina
E P
Ġemp ortÃ©
ĠD onne
Ġhom ologue
Ġr oule
amb iance
ĠInter rogÃ©
omp he
Ġt ub
Ġd ent
Ġrest ant
ĠsÃ©n ateurs
O lymp
Ġt Ã©n
Ġreg istre
Ġbl og
ĠSeu l
Ġlibert Ã©s
Ar gentine
Ġincl uant
ĠB us
ĠO l
D ans
Ġrel ative
Ġc Ã©dÃ©
Ġviol ents
ĠEnv iron
ĠBourg ogne
I rak
Ġconstitu tionnel
iel d
tionn elles
Ġaff aib
Ġrest ruct
ĠÃ©nor mÃ©ment
h u
t rois
ist Ã¨re
ĠD ol
Ġsur sis
ĠJ ud
ĠR usses
re l
ĠN ar
Ġpl aintes
Ġdess erv
I M
v ic
ĠGl ob
de urs
en aire
eu ts
Ġquat or
Ġp ts
ĠNad al
ĠG on
Ġn erv
Ġperd ue
Ġgaranti r
E r
Ġr aid
ĠM ond
Ġarch ives
Ġpow iat
fin ales
ĠOn tario
Ġf ous
Ġman ager
adapt ation
m ie
Ġh Ã©licopt
ĠGren oble
ĠCharl otte
Ġjou ant
Ġnorm alement
ĠFranÃ§ois e
I v
Ġtrans action
Ã©lÃ© rer
Ġattend ue
Ġam ateur
ign y
Ġman uf
ĠMic rosoft
ĠP u
Ġtribun aux
D A
Ġag ressi
ur ier
Ġpl aque
ON G
Ch rist
ĠprÃ©sid ents
Ġdiv orce
d ad
Ġp uits
tÃ© ralement
ĠaÃ©ri ennes
Ġ195 7
ĠhÃ´ te
ĠD Ã©m
Ġpharm aci
ro ger
Ġtch Ã¨que
ĠAr r
ĠSeu lement
Ġgrat uit
accus ation
ill Ã©s
ĠAlex ander
end er
Ġmil itant
Ġrecue illi
ĠrÃ©c entes
Ġtravers Ã©
che z
x i
Ġsaou dite
is ch
Ġmonast Ã¨re
ĠE diting
ĠVati can
Ġincl us
Ġman ne
Ġconnaiss ait
Ġpl aign
Ġcol onnes
ĠRÃ©p ublic
erce des
Ã© on
20 13
Ġhabitu ellement
ĠJ ason
aiss Ã©
hab it
ĠdÃ©fin ir
un animitÃ©
ati vitÃ©
Ġa igu
Ġcompr enant
Ġquoti dienne
ĠprÃ©c on
ĠdÃ©m ocrates
Ġrest re
as tes
ar in
adel ph
Ġat titude
id Ã©mie
ĠDÃ©b ut
Ġinten si
Ġex cessi
iver pool
Ġdis ques
l aient
? ...
ist ent
Ġno tÃ©
aur Ã©
m ette
ĠB ush
h y
Ġhab itant
ĠCong o
ĠrÃ©s ister
it an
Ġporte feuille
ĠSant a
Ġsau ter
Ġsuff rages
Ġt old
ĠÃ©volu Ã©
ah n
om in
ĠTh ib
Ġser vent
ĠÃ©g lises
Ġcr Ã¢
ath on
Ġcatast roph
om ph
Ġj ette
Ġh all
Ġp oit
Ġdign itÃ©
Ġ9 00
Ġsupp rimer
hab itu
Ġcess er
ĠdÃ©place ments
arr estation
Ġbar on
ĠT ib
ĠdÃ©partement al
Ġt ol
Ġ193 6
ĠreprÃ©sent ations
Ġsouff rir
ĠEx c
Ġh Ã¢te
Ġdom ination
Ġsur veiller
ili ppe
Ġtri ple
Ġst y
Ġcouv rir
ĠF BI
Ġcommer ces
Ġ195 4
enregistre ment
Ġpossi bilitÃ©s
alog ne
Ġresp ir
Ġtre ize
ĠdÃ©b ou
Ġpro di
ĠrÃ©un i
Ġcamar ades
Ġpi Ã©t
Ġin tr
P as
Ġcur ieux
Ġoc cuper
Ġr idi
ag glomÃ©ration
ĠmÃ©c ont
ĠMal heureusement
Ġsac s
ĠtragÃ© die
o di
Ġnom mer
ĠA vez
Ġdonn era
Ġmari Ã©e
ĠCam eron
Ġdimin ution
" ;
ĠtÃ©lÃ©ph onique
Ġislam istes
Ġjou ait
Ġconsac re
Ġexp ert
ĠcÃ©lÃ¨ bres
Ġcon jug
one y
Ġs ince
ĠCh ili
ĠlÃ©gisl ation
Ġexist ence
Ġcens Ã©
Ãīc osse
k ins
Ã º
ĠS el
ĠS pe
ĠrÃ©glement ation
Ġsi ff
ĠStan ley
Ġl ob
lu ent
Î ±
om mer
ĠP ier
Ġagric ulteurs
inc er
Ġ194 9
Ġtra m
Ġ iron
Ġfor tif
Ġvi f
c or
ĠPap a
9 2
Ġ195 5
ĠmathÃ©m atiques
Ġo ther
R oy
ĠdÃ©t aill
ĠR hin
Ġg ig
tiss ant
Ġatti rÃ©
ĠG agn
ĠNiger ia
Ġcol oni
Ar mÃ©e
b Ã©
ĠPro d
Ġsimil aires
Ġrom ain
Ġconstitu er
Ġqualif ications
Ġnum Ã©riques
p a
oph one
Ġchauss ures
Ġinsuff is
ĠJ immy
Ġdi es
Ġpropos ent
ĠK az
Ġr ub
Ġc aisse
Ġorganis me
Ġmes urer
Ã©li x
ĠB BC
ĠC aire
ĠV erts
Ġformid able
m ais
b ar
ĠDie go
Ġch antiers
Ġm ous
Ġdemand ait
Ġbou ger
Ġport able
ĠR aj
cu les
ĠpÃ©ri ph
ĠTe chn
ĠdiffÃ©r ences
Ð ¸
Ġh ur
ĠÃ©tab lie
ĠF rid
ĠÃ© lÃ©g
et z
Ġar bre
Ġâ Ģ
C S
ĠS ac
ti ver
Ġcrimin elle
Ġcont ente
Ġdisp ers
appren tissage
Ġboute ille
Ġ ultime
ur de
ĠM ach
Ġmar ier
l at
tin t
at mosphÃ¨re
autor isation
Ġconsac rer
B aptiste
ĠIs lam
ĠAl gÃ©rie
Ġinves tir
Ġordin ateur
Ġchoc olat
Ġbaiss Ã©
Ġcardi aque
ur ne
ĠK ab
h el
ĠinfÃ©ri eure
se y
V D
ĠNorman die
Ġb ous
ali ment
b ec
Ġmob iles
Ġmatern elle
n ait
Ġgra vitÃ©
Ġmyst Ã¨re
Ġliv raison
Mar ne
ĠdÃ©cis if
Ġdo tÃ©
ĠOu est
ram mes
ĠthÃ© Ã¢
Ġm out
Ġcrimin el
Ġbour geois
ass istance
ur o
Ã©t Ã©e
v eu
Ġh el
Ġcont enus
ĠR oll
Ġl ig
ĠrÃ©p ublique
aine ment
Ġac ad
W e
Ġpisc ine
Ġa lign
ĠÃ©limin atoires
app arition
ĠbÃ©nÃ©fici Ã©
Ġ193 8
Ġvi vement
ĠLa w
Ġr age
if ier
Ġbel ges
Ġn ich
Ġr ab
ĠCat alogne
allen ge
ĠÃ ¨
Ġmal heur
Ġfisc alitÃ©
ĠS ir
Ġpar adis
Ġ8 3
Ġauxqu elles
Q ue
Ġprud ence
Ġcanadi ennes
Ġr acc
adap ter
b elli
Ġcol lections
Ġble ue
Ġactu els
Ġexport ations
Ġvag ues
ĠK iev
Ã©l ine
ĠidÃ© al
ĠdÃ©mont rer
Ġ19 18
Ġemp ris
ĠP alette
Ġinves tig
Ġp air
que mment
Ġaffec tÃ©
ĠentraÃ® ner
is tÃ©ri
Ġsex uel
s ans
Ġp on
ot ype
Ġcr oient
Ġphilos ophe
Ġate lier
Ġ11 0
ri ment
ĠCom mer
A th
v ert
ĠB ad
Ġcl andes
ĠPhil adelph
lÃ© tisme
Ġsouverain etÃ©
ĠGen e
ill ons
af ric
Ġcher chÃ©
ĠcÃ©lÃ©bre r
Ġsembl able
Ġar c
ĠRÃ©s ul
Ġcollabor ateurs
ĠAlex is
ut s
Ġend Ã©mique
Ġexig ences
els on
ĠB au
Ġiran ien
ĠRom ain
ĠCh i
o ter
Ġpar i
Ġfier tÃ©
Ġd il
Ġore illes
Ġfac ultÃ©
Ġ195 3
Ġal lÃ©g
Ġ9 2
un a
Ġop tions
Ġoccup Ã©e
Ġreti re
ĠCons tantin
Ġcy clisme
ĠX II
Ġ9 9
ĠpÃ©tro li
Y ves
Ġobserv ations
ĠS pr
Ġis ol
Ġim meuble
Ġcomment aire
aÃ¯ s
ĠFin lande
ĠÃ©mer g
Ã©c lip
ais ie
ĠL ud
Ġfor es
Ġinc ert
ĠcrÃ© dits
he d
ov an
ĠA y
F I
Ġling uis
R S
h ai
Ġin Ã©g
ĠF i
Ġcompr Ã©h
Ġstand ard
Ġdisp oser
Ġt unis
Ġacc Ã©der
ĠRou manie
Ġav oit
Ġexist ent
Ġsou terr
Ġcor ri
ĠÃ©v alu
Ġsucc Ã¨de
Ġincap able
Ã® mes
ĠT y
ĠCam ille
Ġsup Ã©rieurs
ĠTrÃ©s or
Ġsimp li
ĠrÃ©chauff ement
ĠD ion
Ãī gypte
ĠrÃª ver
Ġattribu Ã©
ĠmÃ©tÃ© o
Ġvi endra
arr os
Ġsyri enne
ĠAn na
Ã©v elopp
Ġamb itions
ĠEn cycl
h ard
Ġnour rir
Ġinconn u
om ie
ĠFe derer
Ġrep roche
Ġtravers Ã©e
ĠVirgin ie
ĠProv ence
qu atre
et ta
Ġre quis
Ġmusul man
Ġw ork
Ġse rez
Ġre tenue
Ġgym n
k en
ou g
Ġinterpel lÃ©
ĠD ites
Ġs pe
ĠLond on
Ġmajoritaire ment
Ġus agers
ĠtÃ©lÃ©spect ateurs
Ġcomplex es
ĠTrans ports
ĠdÃ©f av
Ġrecord s
Hen ri
ĠK al
Ġappr ouvÃ©
ĠC I
Ġun ion
ĠconsÃ©c utive
ĠS ciences
Ġfavor is
arbit re
Ã©m otion
m or
Ġiss ues
Ġbu teur
atis ation
Ġf oyers
Ġtravail lait
Ġfil iÃ¨re
ĠmÃ©can isme
ĠFranÃ§ais e
an tin
Ġmanif este
ĠÃ©vent uelle
Ġadul te
Ġconsul ter
ĠB rand
Ġimp ose
ĠM aman
ĠAll ons
ĠdÃ©monstr ation
Ġle vÃ©
Ġper fection
Ġappare mment
ĠB uff
ĠÃ©ch elle
b ul
f ore
ass Ã©s
ĠA st
Ġdi ra
ĠChar est
Ġcon j
ĠR appel
Ġant Ã©ri
Ã©ra blement
ac qu
mp h
ul Ã©s
ch age
Ġl entement
ess aie
Ġpel ouse
Ġe dition
Ġsu g
ter ies
ĠdÃ©l ais
m us
Ġtri omph
vers Ã©e
oblig ation
Ġexp lor
Ġren f
ĠspÃ©ci alement
ĠJam ais
in cident
ĠÃ©ch ouÃ©
Ġi di
uis s
Ġ8 4
ĠL iverpool
ou k
Ġsub it
ĠD a
Ġsa chant
ĠC in
ĠprÃ©v ision
Ġf iction
Ġd an
ĠdÃ©couvert es
Ġalli Ã©
Ġsur venu
T u
Ġn oires
ĠS ky
m as
Ġargu ment
ĠgÃ© ants
hab itation
anim al
ĠdÃ©mont rÃ©
ĠAmer ican
ĠRob in
te mp
Ġcomment e
Ġtraditionn els
ĠC oup
Ġdynas tie
Ġtrans actions
Ġcru ci
Ġgouvern ance
Ġb ur
ĠD ay
Ġexp uls
ut ri
enc Ã©
Ġclass Ã©e
Ã İle
ĠÃ©t ats
ĠÃ©pau les
Ġ195 2
Ġsoulign er
anci er
ure ur
ĠG rÃ©g
ĠrÃ©gion aux
Ġtravail lant
gn y
ĠR oh
Ġdivis ions
un ique
Ġconc rÃ©
Ġs Åĵurs
ar tillerie
Ġhab ite
Ġv entre
ĠT es
orient ation
Ġdur Ã©
Ġveu ve
Ġfabric ant
Ġdis ais
ĠR uss
Ã©n ie
Ġb ass
Ġmanifest er
Ġgal ax
Ġg onf
w ork
Ph one
Al pes
Ġass urant
ĠÃ©v Ãªques
li a
ĠPr om
Ã§ aient
ob i
ver y
ĠI van
ĠRod rig
Ġautoch tones
t able
Ġstation nement
Ã©h Ã©ran
Ġsur p
Ġappar aissent
ĠLion el
qu aient
Ġ0 8
Ġ0 9
ĠBor is
Ġsouff ert
Ġla tine
ci Ã¨re
Ã© ler
Ġsolid aire
Ġnum Ã©ros
ster dam
Ġjam be
Ġd ress
atin g
ĠLib an
ĠR ib
ĠcrÃ© ateur
Ġr and
Ġspr int
ĠEur o
c our
Ġpeint ures
s ol
Ġapp ropri
Ġpens Ã©es
Ġmodi fications
ĠC lÃ©ment
Ġbatt ue
r oid
oli tion
Ġhabitu des
ui ra
ĠLew is
ĠY an
r Ã¨tes
Ġcon si
ĠÃ© puis
Ġbran ches
Ġins titution
Ġch Åĵur
y de
Ġcarb urant
j an
C N
ĠprÃª tÃ©
Ġreconn ue
essi te
Ġprom u
a os
ast ers
ul pt
ĠNob el
Ġpl aine
formÃ© ment
ĠmÃ©dic ament
Ġperman ent
Ġsta ff
ricol ore
Ġdem ie
ĠSh ang
Ġanim Ã©
ĠdÃ©b it
D H
ĠF am
Ġrej oign
Ġrec ond
An toine
Ġinterpr Ã¨te
en jeu
ĠV end
el er
t aire
Ġunivers el
ĠDire ction
ĠEncycl ope
s wick
Ġr endant
Ġto x
ĠP L
ĠNation ale
cri te
P C
Ġconserv ation
ĠsuÃ©d ois
ĠT Ã©hÃ©ran
Ġimag iner
ĠpÃ©n insule
Ġmix te
ĠS ub
d Ã©p
Ġsc ulpt
ĠÃª tres
Ġle cteur
Ġinc on
Ġl uc
hypoth Ã¨se
9 3
Ġf oc
ir d
Ġg Ã¨re
anc tu
ou in
Ġtransf Ã©rÃ©
ĠP it
ad Ã©
ĠLor raine
Ġcompatri ote
ĠH ow
ĠH aÃ¯
ĠdÃ©di Ã©e
ĠnÃ©c essite
Ġin time
Ġsitu Ã©es
Ġpav illon
is tiques
Ġ8 1
Ġparti ellement
meub les
ce au
Ġbanc aires
Ġthe re
z abeth
ag nement
ag rÃ©
ad y
ĠSte ven
ĠM ouvement
Ġsens ation
Ġquin qu
Ġexp osÃ©
ĠrÃ©par tition
ĠT am
es sionn
Ġfor cer
au be
Ġg out
Ġdev enant
ĠspÃ©ci ales
ĠsÃ©lection nÃ©
opÃ©ra teur
ĠChac un
oss ais
im meuble
aiss er
es a
Ġsa tel
ui es
ĠDr ag
s ous
Ġmain tenu
ĠrÃ© cession
erg Ã©
Ġren ommÃ©e
ĠP oi
Ġamb ul
ĠAf ric
Ġad ministration
F L
ĠM ort
Ġsouff rance
ĠÃ©d ucation
ĠbrÃ©sil ien
ĠP av
ĠPer p
Ġst ric
ĠS Ã©g
D on
Ġsouhait ait
ĠspÃ©ci fiques
Ġray on
Ġsensi bles
Ġv ib
Ġlib y
Ã©cri a
S h
Ġpi Ã©g
O li
AT P
ĠB ritanniques
op ie
alle y
Ġabs ent
es cl
ag ression
Ġdestin Ã©es
atis me
eff ort
Off ice
Ãª ve
y ang
Ġ8 7
Ġfl or
C ette
ĠMar ois
ĠB ritannique
Ã¶ r
b en
9 8
ĠÃ©t roit
Ġs ph
ĠG ib
ĠV ik
ĠC it
ĠMc G
in ts
Ġconn ait
accep ter
emp orter
ĠColl Ã¨ge
aus tÃ©ritÃ©
y c
ĠEncyclope die
si a
ĠpÃ©ri mÃ¨tre
I tal
Ġpubli Ã©es
Ġorient ale
ge ot
ĠP orte
Ġcur i
N on
ici en
ĠC ru
ĠsÃ© lections
Ġpoit rine
Ġc asser
ar Ã©
aud it
Ġver dict
Ġin cidents
Ġremer cier
ĠtÃ©lÃ© ch
ĠP atrice
ĠF u
Ġjou era
Bl anche
Or dre
Ġemp Ãª
off ensive
u pp
Ġ8 6
ĠF ox
Ġsatel lite
Ġsuscep tibles
Ġcl an
ob iles
igh ts
Ġpont s
Ġcam ions
or ges
Ġj ihad
d ucation
ri ght
ĠW ell
Ġin fin
Ġvoul ant
Ġaffir ment
Ġv erts
Ġsort ent
an ou
ĠU SA
Ġpass ages
ad ress
ĠprÃ©te xte
Ġloc ation
iss aient
Ã£ o
mb ourg
Ġ ondes
Ġpl ats
ĠdÃ©cl arer
Ġqualif iÃ©s
Ġent rÃ©es
Ġgar diens
acc ue
belli on
Ġproduction s
Ġbon us
Ġbr uxell
ows ki
Ġblan ches
Ġcont ribue
Ġcli p
ĠC itÃ©
ut ent
ĠW ilson
ĠÃ©qu ilib
Ġjui f
orti er
E lle
Ġargu ments
or teur
ard er
Ġpour cent
ĠintÃ©ress Ã©
Ġtechn ologique
Ġverg es
Ġappar aÃ®tre
B run
Ġexp ositions
ĠV as
Ġflam mes
onn iers
Ġpart ant
Ġs he
Ġrap ides
ĠLÃ©g ende
um Ã©s
Ġv rais
Ġattend us
ĠCh inois
ĠAl b
Ġle Ã§on
Ġh ame
Ġpen sion
ĠSyl vain
ak es
ĠdÃ© Ã§u
ĠgÃ©n Ã©tique
Ġrest ri
ĠA k
Ġ ..
Ã©l ab
Ġse mb
ĠV au
Ġcon ces
z en
ĠK am
Ġorganis Ã©es
ĠJoh an
Ġb illion
ro se
Ġd ates
Ġdes qu
Ġconf ier
Ġtant Ã´t
Ġcont rac
ler c
Ġconsid Ã©rÃ©s
ĠgÃ©nÃ©r ales
Ġe in
av Ã¨re
oi ement
Ġtempor aire
ĠR hÃ´ne
ur rection
tr Ã©e
ĠF lam
Ġexc uses
ĠdÃ©s astre
ĠC oh
Ġmention ne
Ġmain tient
Ġinter ventions
Ġcomp agne
n era
Ġmaxim ale
Ġac cidents
Ġchasse urs
Ġpolon aise
ĠD all
Ġs tre
ĠR ick
ĠÃ©limin Ã©
Ġinuti le
ĠPe tite
us que
ĠrÃ©clam er
9 4
20 14
ĠBl an
ĠCent er
ĠAl fred
Ġralen tissement
ambassade ur
Ġobs erver
individ u
m und
ĠdÃ©finiti ve
Ġinter nes
Ġc ui
Ġconst ante
ont an
ĠMarg uerite
ĠA D
Ġd ommage
r ise
om Ã¨tre
Ġse ize
end us
ĠB rit
ĠH un
any ah
r ations
ĠrÃ©vÃ©l ations
Ġanalys es
h Ã©lie
ĠTrav ail
intÃ©g rer
Ġr ation
acc usÃ©
Ġsupp orte
ĠP oint
Ġconsid Ã©rablement
Ġob tenus
ĠSaguen ay
ĠGar cia
Ġcol onie
Ã¶ n
Ġboute illes
ĠFran co
ĠmÃ© trage
ĠÃ©l ue
Ġdimin uÃ©
Ġign ore
Ġt as
oles cent
Ġadolesc ents
ĠbÃ¢ ton
Ġprim aires
Ġnobles se
en ko
ĠpÃ©ri hÃ©lie
ĠimmÃ©di ate
Ġconstitu Ã©e
Ġcan ons
M an
Ġaccord Ã©e
Ġtax i
Ġab rit
ĠB all
ĠGen eral
ter ne
em m
tÃ© n
ĠrÃ© vis
at rie
ĠS T
Ger main
am o
Ġnature ls
w ich
ĠBon jour
aut onomie
Ġdoc tr
c as
ĠrÃ©s olu
Arch ives
k ir
Ã©li b
ĠbÃ©t on
ĠCam eroun
I ls
Ġculture lles
ĠcoÃ©quip ier
ĠHoll ywood
ĠHar ris
Ġimp ression
ĠrÃ©volu tionnaire
Ġrec ueil
Ġprisonn ier
Ġinqui Ã©tudes
Ġa y
Ġtr on
ot tes
ĠAnd y
ĠCos ta
Ġunivers itaires
tiss ent
Ġc amb
Ġfran chi
uss ent
Ġu a
Ġc itÃ©s
P I
Ġexemp les
Ġimp ati
ĠSch m
ĠdÃ©termin ation
ĠR est
Ġent amÃ©
ĠcrÃ© ations
ĠÃ©mo tions
Ġviol ente
ille ur
Ġsa y
ĠPaul ine
Ġfer ais
Ġes cal
ĠE N
Ġann ulÃ©
er ai
Ġrapp rocher
Ġc urÃ©
Ġplace ment
Ġmoy ennes
Ġsauv ages
au des
Ġobserv ateurs
ĠdÃ©lic at
ĠÃ©nerg ies
g nes
Ã©l oign
Ġrest Ã©s
ak ar
ĠM ON
Ġbre f
Ġpen alty
Ġm ante
Ġav oue
Ġmassi ve
ĠB Ã¢
Ġexcl u
ag ram
p os
ĠprÃ©v ient
ĠJord an
Ġcar rÃ©s
Ġsout enue
Ġbudg Ã©taires
imag ine
he ad
Ġth ree
Ã Ģ
ĠAb onnÃ©s
Ġrec ulÃ©
v Ã©n
i cher
roÃ® tre
ĠA mb
o ques
Ġpou dre
Ġ3 000
Ġp acte
Ġes tiv
Ġven aient
ĠM our
ĠDu f
H er
ĠHeure usement
Ġenvoy Ã©s
Ġcommis sions
Ġrec ette
ĠR ousse
Ġillus tre
Ġv Ã©n
Ġtra cÃ©
ĠBel ge
ĠB et
Ġprog resser
Ġiniti al
' m
Ġcomporte ments
Ġp Ã¨se
Ġlo ok
Ġye ars
Ġcontr aintes
Ġbi j
ĠV II
ĠMar co
ĠN a
Ġven ez
Ġdistin ction
ag i
Ġco opÃ©ra
erse y
Esp agnol
ĠingÃ©n ieur
Ġincl inaison
Ġfusill ade
Ġti rage
ĠS ie
ĠrÃ©p Ã¨te
ĠRe ine
Ġviv ait
Ġfus ionn
Ġach ats
ro vis
Ġneu viÃ¨me
Ġlois irs
al g
aut o
Ġass urÃ©e
re b
Ġpro vient
Ġtri omphe
ĠChrist oph
Ġenle vÃ©
Ġmiss iles
Ġ19 19
u an
di ce
Ġd outes
Ġcommunaut aire
Ġexcell ente
erre ur
ier t
Ġr assurer
re uses
Ġaband onner
Ġh yp
ck er
Ġp aire
Ġamb ition
ĠDj ok
Ġfrag ile
Ġav enue
Ġharc Ã¨lement
i j
tin ation
Ġreport age
Ġz u
Ġsu ites
Ġla tÃ©r
Ġcr aintes
Ġrapproche ment
ĠAmer ica
Ġr uisse
Ġconf usion
Ġconst amment
in ions
Ġlit res
Ġ195 1
Ġde uil
Ġth Ã©m
Ġf iÃ¨re
Ġfl anc
ĠFI FA
HÃ´ tel
ĠÃ©c rans
ĠT rop
ĠRe ich
ĠStat es
Ġfab rique
Ã© te
Ã©chapp er
Ġstup Ã©
ĠrÃ©s ide
Ġf ui
Ġdiagnos tic
i pp
are z
ĠNic ole
Ġiniti atives
Ġrassemb ler
ĠdÃ©p osÃ©e
Ġconf r
Ġexp ression
ins crire
Ġentrepr eneurs
aut Ã©s
ĠprÃ©sid entiel
Ġral enti
Ġde ttes
ĠCour t
ĠsÃ© isme
ill o
Ġble us
Ġqualif iÃ©e
9 6
Ġimp rÃ©
opp ort
S M
Ġris quent
ĠRT L
ar ly
ĠPy rÃ©nÃ©es
Ġger man
Ġlun ettes
inter roge
ĠBro ok
ur al
an Ã§on
ĠÃ©chapp Ã©
Ġdi d
Ġfisc ales
Ġmag ie
ĠisraÃ©li enne
Ã¼ n
Ġfonction ner
Ġbl oquÃ©
Ġtal ib
n ord
Ġ193 7
Ġprochaine ment
T ube
ĠprÃ©v oir
ĠCommun autÃ©
o on
Ġcoup es
Ġcoll ision
Ar c
ĠaÃ® nÃ©
ĠSt ra
ĠFrid ay
ĠdÃ©c rocher
ul f
off res
ĠS itu
u yant
V A
Ġ192 9
T T
ĠSch ool
Ġcouv ent
Ġoff rant
ĠO NG
Ġten us
Ġch utÃ©
ĠdÃ©partement ale
ĠdÃ©b arque
Ġdemande urs
Ġtourn ois
Ġportug ais
Qu and
ue ur
ĠPl ay
Ġad ressÃ©
at titude
Ġ15 00
Ġinf lig
Ġsuff isant
ĠE b
Ġaffron tements
ĠrÃ©col te
obs ervation
Ph ilippe
Ġ14 0
ĠP enn
at ern
introd uction
Ġpar ad
Ġfix er
ĠfrÃ© quemment
ĠHÃ©l Ã¨ne
Ġsub ventions
Ġspati al
ĠSal ut
Ġor ange
eu m
Ġ193 3
Ġair s
Ġpuiss ances
Ġray ons
Ġapp ui
Ġsor tis
ĠdÃ©c oup
Ġfais ais
Ġgrande ur
Ġutilis ation
Ġsign Ã©e
Ġbaptis Ã©
Ã©cl air
Ġn uits
tic al
Ã©th ique
ĠC aisse
R A
el y
ov o
G V
Ä į
ĠrÃ©clam Ã©
Ġpsych ologique
ĠS Ã»re
je ctions
imp lant
Ġp Ã©tition
Ġattend ait
am s
Ġav ancÃ©e
Ġva peur
ran de
ĠG and
Ġ( _
Ã ¦
Ġal erte
Ġbre ak
Ġpro jec
Ġj ure
ĠrÃ©col tÃ©
Ġaper Ã§
lus ion
che cs
Ġcompr ennent
ic at
ĠnÃ©g atif
Ġpr oie
ĠH ass
ĠAl ph
Ġsex uels
Ġdi eux
ha Ã«l
actu elle
Ġnor me
ĠcomÃ© dien
d rome
Ġf olk
ĠPhiladelph ie
ĠsÃ©p arer
Ã©p ouse
Ġprof its
ing en
Ġag ence
ĠPerp ignan
ĠrÃ©pert oire
ĠrÃ© affir
Ġv ign
Ġgueu le
Ġtu Ã©es
Ġn Ã©s
ĠB ercy
iv ern
Ġfaute uil
Ġparc s
Ġt ante
Ġvari Ã©tÃ©
ĠW at
Ġmodi fication
Ġmos quÃ©e
ch est
ĠL yn
ĠT ed
M er
ond on
Ġfa usses
ĠI d
Ġg our
effec tu
ĠF aites
ĠAr riv
de aux
9 1
ann on
Ġallemand es
Ġpropos Ã©e
Ġ0 7
Ġtrans mettre
Ġh and
Ġpel oton
ĠsÃ»r s
Ġju gÃ©e
Ġmodi fiÃ©
ig Ã©ri
ĠpÃ©n it
ĠDÃ©s olÃ©
ĠB un
ĠÃ©v ac
G B
ĠC Ã©line
h Ã©tique
Ġcomp tant
vis ible
avi ation
Ġambiti eux
Exp ress
Ġsus cite
Ġinc omp
Ġmin oritÃ©
Ġexcent ricitÃ©
ate lier
Ġcomp l
iti es
V M
Al liance
Ġtransp ortÃ©
ĠreÃ§ oivent
ĠÃ©lectr oniques
ou ard
Ġsp ontan
Ġtur que
ore ille
Ġfus il
Ġgouvernement ale
ĠP Q
ĠrÃ©tab lir
ĠGÃ© org
ĠB a
Ġbal ance
Ġmondi aux
Ġamb iance
ĠYou Tube
ĠrÃ©v Ã©ler
ĠVe gas
Ġdir ais
Ġ19 00
Ġch Ã´me
ĠM aÃ®tre
i mb
ĠR and
ph ine
9 7
ĠC rois
ĠRec ords
Ġmagistr at
Ã©clip tique
Ġal titude
ĠrÃ©s umÃ©
Ġposs Ã¨dent
ĠH av
ĠBri tish
Ġgratuite ment
ĠmÃ©dic aux
pl an
ĠcinÃ©m at
Ã Ī
Ġaudi ence
Ġb erg
corÃ© en
Ġciv iles
Ã© z
Ġad ministr
A ug
ĠdÃ©termin Ã©
ĠdÃ© Ã§
ĠRe ims
Ġsoli des
ac tivitÃ©s
ĠSÃ»re tÃ©
Ġc aisses
ĠtÃ©lÃ©ph ones
Ġsoign er
Ġdeme urent
Ġrou es
Ġavent ures
ĠSin on
A li
Ġrac ines
igr ants
Ġnom in
Ġpat rons
em me
u h
ĠSav oie
ni a
Ġsympt Ã´mes
cessi bles
env ie
u aire
Ġpar rain
ĠArr Ãªte
Ġac cess
ct Ã©e
En v
Ġmons tre
ch ose
ĠrÃ©g ul
Ġprior itÃ©s
ĠHam as
ĠK l
ĠPeu geot
Ġafric aine
ĠGÃ©n Ã©ral
Ġactu elles
ĠRÃ©public ains
Ġla mp
Ġdi vin
ĠcompÃ©t ence
pe urs
ĠDjok ovic
ĠmÃ© pris
ĠM ati
ĠÃ©vent uellement
Ġgen oux
Ġinterpr Ã©tÃ©
ten ues
Ġp ul
Ġs age
Ġemp ÃªchÃ©
Ġimp l
ĠcomplÃ© ter
Ã©di teur
ar tistes
Ġconcern Ã©es
Ġau dio
An ti
S T
ill us
Ġli ce
Ġ5 000
Ġaltern ative
r est
Ġrenouv ellement
Ġatt ente
ager ie
ul li
se ctes
Ġregard Ã©
Ġtoi lettes
Ġquator ze
Ġorig ine
Ġcamp us
Ġconfir mÃ©e
ĠC u
ĠActu ellement
O ise
ĠprotÃ© gÃ©
Ġremer ci
Ġinconn ue
Ġpermet tait
ĠB M
Ġf al
Ġaccomp li
ĠEr d
l ers
par tement
Ġo k
ĠT oy
Ġa isÃ©
ent ends
w er
in tim
Ġcar ton
ĠPalestin iens
Ġdi ab
Ġcol lÃ©g
tin Ã©r
Ġm Ã©g
Ġgen res
ĠJ ersey
Ġstu dios
Ġatta quant
ass a
fi Ã©s
Ġch aude
ore l
Ġmagn itude
lis se
ĠAut ant
Ġti ck
Ġatti re
ĠXX e
Ġm oul
Ġbe fore
ĠY oung
ĠÃĤ ge
ĠsÃ»re tÃ©
tel s
Ġsou mettre
Ġfond ateurs
Ġrenforce ment
oll y
Ġpays ages
Ġtrans forme
ĠRen aud
Ġadmi ra
Ġconn aissez
Ġcontempor aine
Ġn atur
Ġaccompagn er
G E
Ġsubst ance
Ġvraisembl ablement
ĠFer rari
Ġreg ards
Ġcivil isation
Ð µ
t aient
ĠBay ern
tor al
Ass ad
ĠgÃ© ographique
Ġfut ures
Ġly cÃ©
amme d
Ġmanifest Ã©
Ġviol on
Ġappr en
ĠH igh
Ġsui cid
ĠsoupÃ§ onnÃ©
ĠÃ©g alitÃ©
Ġin formÃ©
Ġlarg es
Ġav iez
r ys
F er
ĠrÃ©p lique
ade au
en tique
Ġmus Ã©es
aff ilÃ©e
ĠColle ge
Ġfix Ã©e
Ġch Ã©rie
Ã©ber gement
Ġfant astique
ĠAss ociation
Ġau d
emp run
le g
Ġ16 0
Ġesti mÃ©e
Ġmarchand ises
tis er
tionn Ã©
ĠY e
att ends
Ġoffici elles
Ġb ro
Ġpl uies
Ġdans er
ĠA ra
Ġp itiÃ©
le in
Ġoff ensif
pp er
Ġaver ti
exp ort
ĠhÃ´tel s
Ġconsid Ã¨rent
Ġmira cle
Ġc Ã¨de
ĠEd ward
Ġinqui Ã¨te
ĠT ak
ĠO ct
ĠW ol
ĠH ervÃ©
ĠÃ©tudi ante
Ã©c rit
Ġunivers elle
Ġeff ray
ĠrÃ©p Ã©ter
Ã©m en
Ġc Ã©d
ĠimpÃ©ri ale
OR T
Ġital iens
ĠrÃ©p arer
ad Ã©mie
Ġb er
c ourt
ĠAir bus
Ġmaj eures
Ġprofessionn elles
Ġmot o
ĠM ill
or ado
Ġaffich Ã©
Ġbou ge
Ġfrapp es
ĠdÃ©r oulÃ©e
Ġcol onne
Ġd am
app orter
ĠP ass
ĠB il
Ġdange reuse
Ġassoci Ã©e
Ġdou zaine
m od
Ġmis Ã¨re
u in
Ã¢te aux
Ġchois is
rob ation
Ġcoll ine
Ġco te
an ime
ĠÃ©le vÃ©es
ĠrÃ©g imes
ĠPar all
n ot
Ġcond uis
Ġtr aum
Ġgr ille
ĠChe v
ĠC oc
ĠL au
Ġfr ustr
Ġk e
rÃ© p
Obs ervatoire
ĠF ree
Ãª le
Ġfall oir
Ġinc ulp
ĠVol ks
ĠrÃ©c ents
ĠÃ©par gn
L M
ĠS atur
Ġenqu Ãª
Ġfournisse urs
ĠSh ar
ĠW olf
Ġo v
Ġterritori ale
ĠF ou
Ġprotoc ole
ĠLo ve
ĠD euts
Ġpourcent age
Ġpar venu
an ique
Ġapp ellent
ĠRou en
Ġreven ue
ĠlÃ©g al
ĠM oss
Ġpl aide
Ġtra ditions
Ġg orge
ĠcompÃ©ti tivitÃ©
Ġvigil ance
or di
o tique
A ri
ĠprÃ©al able
Ġmag ique
Ġgr as
Ġp orn
Ġdispos ent
ri x
Ġvol can
ĠdÃ© cident
al if
Ġmassac re
ĠV ierge
Ġ193 4
v Ã©g
appr Ãªte
si ers
ĠR av
Ġrespec te
Ġdom ine
Ġsim ultan
ci enne
aj oute
ĠN oir
ĠSte f
Ġfati gue
Ġam oureuse
ĠextrÃ© m
o dique
Ġindi ces
ĠWall onie
ĠBos nie
ins cription
ver gure
Op Ã©ra
Î ¿
ĠM ercedes
Ġmine ur
ĠSy d
Ġaper Ã§u
Ġatta quer
ĠC ra
ĠNe y
iss ons
Ġradi cal
Ġterr estre
ag h
Ġcon ditionn
Ġen s
Ġ193 5
Ġpays ans
ĠK u
ĠrÃ©cl ament
Aut oritÃ©
orte ment
Ġs anctu
ill ent
ĠG rec
Ġre quÃªte
Ġoff ice
Ġs oyez
ern ant
I P
Ġpouss Ã©e
Ġpoursui vent
Ġn dlr
Ã® t
Ġinond ations
ĠHe y
Ġca deaux
Ġprovin cial
ot ti
Ġser ment
Ġins truction
il Ã©s
aÃ¯ da
oy age
dÃ©m ocrate
ĠB ulg
ĠL ub
ĠS ach
ĠL ouv
Ġpoly val
Ġempl oie
ic tionnaire
Ġc u
ĠsÃ© min
champ s
ron es
iss a
ĠPort o
O ccident
titu er
exp lor
Ġjoue use
ĠFont aine
Ġvis Ã©
ĠRom an
ĠSÃ©n Ã©gal
Ã©par gne
Ġb aign
ad vers
Ġassass inÃ©
Ġautomobil istes
Ġislam iste
ĠtÃ¢ ches
ĠL une
Ġper tin
ĠopÃ©ration nel
Ġl Ã¨ve
ĠingÃ©n ieurs
riv ant
ĠMoh ammed
Ġi f
ĠR ud
Ġref aire
Ã©ron autique
umin eux
ĠrÃ©s ist
m estre
ĠSing ap
Ã© enne
Ġconv oi
ĠsÃ©p are
ab us
ĠDom in
ĠscÃ©n ariste
on ies
Ġpi Ã¨ge
R hÃ´ne
Ġpar am
Ġ urgence
et e
Ġsa tell
ĠrÃ© bellion
Ġle Ã§ons
Ġtransp orter
Ġsatisf aire
Ġir landais
Ġress ent
Ġprestig ieux
Ġne veu
ĠÃī douard
Ġstatis tique
Ġlance ur
ĠcomplÃ© tÃ©
Ġf um
ĠarrÃªt Ã©e
Ġc ock
ĠF ils
ĠForm ule
Ġcomp oser
ac tive
Iv oire
tu rer
anci ens
Ġappar u
Ã¤ n
FR A
dic at
Ġdouce ment
Ġrestruct uration
ĠcrÃ© Ã©s
ĠamÃ©li or
ĠdÃ©mont re
ĠFran ces
at on
ĠP Ã¢
Ġon ly
alle mand
Ġval u
s k
av a
ici lement
an tis
Ãī l
S C
ĠDÃ©s ormais
ĠRet our
ĠDeux iÃ¨me
Ġchor Ã©g
cul aire
ĠL aisse
Ġconv iction
ĠsupÃ©ri eures
stan bul
Ġcr Ã¨me
Ġ ic
Ġorth od
Ġinv ol
Ġw ar
Ġcompagn ons
Ġh old
Ġimp lique
Ġpare ille
Ġmand ats
Ġrou tier
ĠI e
Ġincont ourn
Ġm ay
Ġtre mp
aur ation
Ġc anc
Ġquoi que
Ġaccompagn Ã©e
adi e
ĠC ole
aci er
Ġsign ale
Ġvir age
Ġmar oc
il de
am Ã©ricaine
ĠprÃ©dÃ©c esseur
ĠdÃ©p ression
ĠdÃ©pl oiement
Ġpo te
t oire
Ġrep orter
Ġp antal
Ġn oct
Ġannon ces
ens Ã©s
Ġ' ,
Ġins urg
ri ens
Ġraisonn able
Ġas sembl
Ġru ines
Ġmur m
G u
ĠF Ã©lix
ĠM ess
are l
ĠConf Ã©rence
ur ances
T e
ill is
roch ent
Ġpr ouve
ĠM iller
Ġpros p
Ġb av
ĠW ay
ĠH ur
Ġpuiss ants
att le
Ġr ide
ĠG ood
Ġdouce ur
ĠDi jon
Ġin hum
ĠH ard
ĠCh an
ĠN ature
on ale
ĠprÃ© ju
Ġca user
Ġ192 8
Ġrevendic ations
are d
acu ation
Ġavanc Ã©es
ĠLeg ault
ex trÃ©
Ġconne c
Ġ" ),
... ),
Ġv us
Ġchim ique
av oc
Ġfi Ã¨vre
Ġcour ants
ĠF id
ha fi
Ġsurv ivre
ĠrÃ©p Ã©tition
ĠlÃ¢ cher
ĠParall Ã¨lement
tÃ©ri eures
ĠS oul
te chn
ĠDoc teur
b eau
Ġmagistr ats
ĠA wards
Ġpoign Ã©e
g os
p oint
Ġstock s
Ġf Ã¢
M e
rou gh
Ġb and
Ġcontribu ables
am is
Ġment ale
ab a
aiss ant
Ġinst ants
ĠP rice
ĠdÃ©s accord
Ġintellig ent
ob Ã©
h ar
ĠmÃ© ch
Ġlourd es
igne urs
Ã© ens
Ġam ical
Ġenj eu
ĠÃ©t h
ÃŃ a
ĠÃ ´
ris tian
Ãª tu
w ays
Ġ193 2
Ġcirc uits
ĠdÃ©barr asser
Ġdisting uer
Ġexplic ations
Ġ19 17
Ã©li que
Ġch aise
Ġc auche
Ġp Ã©qu
ĠS C
Ġpos Ã©e
Ġla s
Ġcrimin els
un k
ĠM aire
ĠÃ©d itÃ©
Ġtr Ãªve
Ãī ducation
ac ter
ĠSyl vie
Ġrembours er
end aire
Ġpa quet
ĠR C
ĠprÃª ter
Ġcord es
ĠV u
20 17
op es
ĠV ingt
Ã© demment
Ġdes cription
ĠF leur
Ġchar te
Ġfl ui
om er
Ġmar ket
ĠS ah
rah im
inqui Ã©tude
Ã¨ ves
ĠdÃ© ception
Ġpass a
ĠrÃ© ci
Ġportrait s
Ġoppos ant
ĠÃ©c out
w agen
ĠcoÃ» ter
Ġprolong er
Ġdiff icilement
Ġn aÃ¯
ĠH ad
Ġrev iennent
Ġindi en
Ġartis an
Ġmar bre
ĠrÃ©sid ences
Ġpro ph
alli ance
Ġst rict
al ph
si f
ĠPS A
interpr Ã©tation
appar tement
Char les
Ä ģ
ĠC ass
Ġculture ls
Ġne f
ĠdÃ©grad ation
Ġg Ã©rant
gn ation
Ġcat alogue
ĠM ann
Ġprom ette
ĠdÃ©ch ir
ĠprÃ©s umÃ©
Ġconfi Ã©e
T out
Ġgig antes
ĠV it
Ġf lÃ¨
ĠM b
ĠK o
er d
Ġrempla Ã§ant
Ġconfront ation
vision nement
Ġamen er
Ġcur rent
Ġcaval erie
ĠNam ur
ĠH art
oy ant
Ġcommand Ã©
Ã©quipe ment
ĠWil d
onne urs
Ġbr isÃ©
O P
Ġdoctor at
ĠS id
ocra tie
20 15
Ġmusul mane
ĠdÃ©mar ches
iss aire
e il
Ġridi cule
app liquer
ct or
ins piration
ĠAth Ã¨nes
ĠÃ©qu ilibre
urr ence
Ġpropos Ã©s
B ritannique
Ġcontr ainte
Ġindi quent
Ġinaug urÃ©
ony mat
Ġfir ent
Ġc ort
Ġmet tait
ĠS ot
Ġquel conque
in ge
Ġexp losion
Ġcuri ositÃ©
Ġtrouv a
Ġa us
Ġpublic ations
ĠÃ©cl atÃ©
Ġcont enir
ĠdÃ© teste
m el
Ġmar gin
Ġfa Ã§ons
ĠM asters
Ġb ad
P r
Ġpri ori
Ġfrom age
k m
Ġj ob
form ation
Ġmanuf act
ĠdÃ©cÃ©d Ã©e
Ġ9 3
Ġorganis Ã©s
Ġnor vÃ©g
Ġpati ence
app ort
oc ations
ĠrÃ© Ã©lu
Ã« n
ĠcrÃ© ant
ĠS up
ne d
ĠMaj estÃ©
Ġcommen Ã§a
Ġpres sions
ĠC i
Ġtr ous
Ġp in
ĠP os
Ġam ont
Ġvis ibles
on tiers
S ud
ĠM oul
ver sement
Ġs pec
ĠRappel ons
l iste
Ġin tim
oph ob
ĠSeu ls
20 12
b is
' _
ĠprÃ©limin aire
Ġindi quant
am ine
w ald
Ġrel Ã¢
ou m
c ast
ye ar
Ġgra vement
b ury
Ġfer mÃ©s
ĠD ec
ĠprÃ©c Ã©demment
re ct
ĠBach ar
autom obile
Ġsol enn
ers t
r itÃ©
Ġpr enez
Ġmeur tres
he m
Ġfonctionn aire
Ġpart agent
ĠJapon ais
oÃ¯ s
Ġnat ale
Ġtra ject
o eu
Ġmondi ales
Ġm Ã¨res
ol les
ĠTot al
Ġoff rent
Ġadapt ation
ĠDire cteur
Ġinc ons
o lement
ĠG ord
Ġmar quant
ĠAn derlecht
ĠV iens
Ġfil i
Ġplu me
histor ien
Ġs tÃ©
hor reur
Ġapp e
ond a
Ġ192 4
ĠK ate
ĠM oz
fi ants
Ġaband onne
l age
Ġretrait Ã©s
ĠC olu
ĠL ord
ou ti
Ġexpri mer
Ġam us
ĠEn g
Ġser as
Ġexp ose
ĠrÃ© cip
ĠT ours
Ġtrouv Ã©e
Ġcomp ati
ĠBel ges
Ġfame use
Ġconstr uits
ĠChe lem
Ġrapp orter
Ġcel l
Ġcon g
Ġ4 50
ĠD ick
ĠD ave
Ã©le vage
Ġm Ã¨tre
Ġpromen ade
Ġsporti ves
Ġlit tÃ©ralement
ĠAm azon
d Ã©s
ĠdÃ©c ol
Ġimpos Ã©e
ĠspÃ©ci aux
Ġex Ã©cu
ĠdÃ© range
gn Ã¨s
ĠÃ©val uer
si ve
ĠS em
org ue
ĠD et
vi Ã¨ve
Ġsuscep tible
ac tes
Ġaim ait
yd ro
Ġas pir
oph ones
Ġan onyme
ĠAli ce
ĠF aire
ĠY Ã©men
Ġrep oser
ers bourg
Ġterr asse
Ġhy per
de m
off s
ĠK elly
ob a
Ġob Ã©
Ġsignal Ã©
ĠmÃ¢ le
ĠD VD
Ġdimen sions
Ġprog resse
ĠMes si
ĠM Ã©di
om i
Ġgra de
Ġrent rÃ©
uct rice
ĠK r
Ġmar t
Ġex tÃ©rieure
Ġtest er
Ġ iv
ĠintÃ©g rer
Ġp aci
ĠO ut
Ġy ens
exp Ã©ri
G r
Ġb aiser
ĠDe voir
y cle
ĠFland re
Ġtac tique
az e
Ġju gÃ©s
ony mes
Ġl ow
ĠrÃ©public aine
ussi ons
Ġsuccessi vement
les se
Ġ0 1
ĠfrÃ©qu ence
ĠJu ppÃ©
ĠboÃ® tes
ĠM am
ch esse
ĠS au
ĠdÃ© lit
Ġb is
ĠÃ©criv ains
b oy
ĠGÃ©org ie
d uc
oth Ã©rap
Ġindivid uel
ĠGer man
ĠI rlande
O b
id Ã©es
Ġiniti ale
Ġfaut es
ĠMatt he
inter mÃ©diaire
ĠLaur ence
g les
ence inte
Ġau rez
Ġw orld
Ġress or
Ġriv er
ne uf
Ġwh at
Ġa qu
eu il
Ġcorrection nel
Ġad Ã©qu
Ġartis ans
ar bre
Ġpat ern
Ġt ables
ĠH ous
ionn age
Ġmar in
ĠAlex and
Ġab att
Ġl ign
Ġg ilets
z ig
ĠR usse
Ġcomb inaison
H e
Ġidentif ier
amb ition
ĠAh med
D C
Ġv Ã©c
ĠrÃ©p utÃ©
Ġarr estation
erg y
Ġchancel iÃ¨re
Ġsol s
Ġ9 8
' .
Ġeff ond
Ġnu ages
Ġthe m
Ġcoord ination
Ġpropos ant
or ique
J ose
ĠJ ay
Ã¨ bres
d isant
Ġsur venue
Ã©p aule
ĠSyd ney
Ġ19 10
Ġestim ations
ĠR angers
ĠdÃ©t riment
sionn aires
Ġcaract Ã¨res
Ġbord s
Ġrencont rent
Brun swick
ĠÃ©t onnant
m oni
Ġmar qu
Ġautom ne
Ġrep Ãª
ĠGr os
Ġco ol
ĠfÃª ter
ĠpÃ©r il
ĠP ay
p te
Ġan y
Ġple urer
ĠEli zabeth
ĠAnd erson
ĠCh al
Ġconseill Ã¨re
Ġkil os
Ġc umul
Ġmilli er
Ġmod alitÃ©s
ĠC ad
f iquement
on al
Ġannon Ã§ant
ĠO range
Ġperd ent
Ġcir que
Ġv Ã©l
Ġviv ants
am ation
Ġjuridi ction
Ġgri ppe
er tion
ĠI ss
inves tir
Ġench Ã¨res
ĠRaf ael
tres se
ĠM ous
Ġd auph
Ġre lÃ©gu
ĠC ath
ĠConc ernant
ĠÃ©gyp tien
Ġform Ã©e
Ġali ments
ĠW ed
ĠSh er
Ġcor de
de dans
arch ipel
Ġpeu pl
g et
ĠAn t
ĠdÃ© lin
ĠB ac
Ġress orti
ĠLu cien
ĠCh ab
Ġrou tiÃ¨re
Ġbl ind
ĠF ren
Ġch aos
Ġt s
Ġh it
ct ures
Ã©v acuation
ĠB ak
Ġtalib ans
Ġenter rÃ©
ĠdÃ©f ensive
ill ant
Ġparois si
Ã ĩa
ĠErd ogan
Ġdirec teurs
ĠLa ura
Ġcolon ies
Ġtr ist
l ain
ĠL R
Ġsurn om
Ġimpli quÃ©s
Ġlogici els
occ er
Ġappar tenait
Ġc um
ver gne
Ġins criptions
ĠRegarde z
Ġdies el
ĠrÃ©par tis
ĠG asp
Ġpot entiels
ĠK enne
mar in
ĠprÃ©occup ations
Ġsais ie
Ġinv est
ĠDer riÃ¨re
ĠfÃ©lic itÃ©
Ġfor ter
od a
Ġret ra
Ġch ants
ĠCon vention
Ġsmartph one
Ġp ommes
ĠvÃ©rit ablement
ĠCl ar
Ĵ u
Ġcer titude
m ons
aut s
ĠÃ Ĭ
Ġdivis Ã©
sh ire
o ce
Ġco h
G ar
ĠHill ary
Ġmoin es
ĠT rÃ©v
imm obilier
Ġnour r
Ġwh ile
ĠsÃ©rie use
Ã©rop orts
ĠdÃ©p Ã´ts
oth er
or o
Ġglob alement
ĠServ ices
Ġcorrespond ance
ĠdÃ©pl orÃ©
ĠLamb ert
Ġcon forme
Ġmo tion
Ġse mbler
ĠtÃ©moign er
Ġ192 5
Ġsculp ture
Ġman quent
ĠB onn
Ġcoff re
c ope
Ġbij oux
Ġinst aller
Ġl ent
ĠRep orting
Ġcol or
Ġabord s
Ġaim erait
Ġtrag ique
ĠrÃ© form
Ġai ment
Ġdess ert
Ã³ w
ĠP ent
ing ham
ĠB NP
Ġmas que
t ur
Ġcomp lot
Ġincar ne
ĠdÃ©c rochÃ©
U M
Ġcommun s
ĠJ oy
Ġconstitu tionnelle
ol ation
Ġriv aux
Ġr iz
um ine
ag s
og Ã¨ne
empl acement
ĠJ osh
ul tes
Ġren ch
Ġchinois es
Ġrend ra
Ġsoud ain
ou Ã©s
ĠbÃ©nÃ©fici ent
ass o
ĠstratÃ©g iques
ĠdÃ©b ord
AD N
Ġs cep
Ġrepar tir
E M
ĠB ul
Ġstup ide
olÃ© rance
ĠE DF
Ġparticip ant
ĠH os
Ġchim ie
Ġ Ï
Ġrembour sement
b ois
ĠOlymp iques
Ġremer cie
Ġd a
ĠGold en
Ġconc entre
Ġh ivern
Ġr itu
ĠD anny
Ġind Ã©
Ġvis ibilitÃ©
Ġt Ã©les
Ġcontinu itÃ©
Ġan tic
Ġconcern ent
Ġdix iÃ¨me
ĠVal ence
Ã©le vait
ĠV el
Ġeffectu Ã©s
ois se
Ġmal aise
Ġnerv eux
Ġreli ant
Ġh Ã©roÃ¯
Ġcomment er
ĠD y
Ġper c
ari os
Ġpersonn ellement
Ãī tienne
ĠCour onne
Ġconcert ation
ĠN elson
Ġvis ages
ĠV ars
Ġsent ait
ass Ã©e
Ġvol ontiers
prÃ©s ent
E ss
Ã¢ mes
ab y
Ġg amin
rai rie
ĠdÃ©g ager
Ġjus t
alis ant
Ġvie il
til itÃ©
Ġ187 0
Ã©ri f
Ã©di te
aill ant
ĠLa dy
Ġm ord
Ġpan ique
ĠP omp
ĠD J
Ġjuridi ques
Ġind ustrie
attend ait
Ġvoy ager
Ġhospital ier
ĠH ubert
al t
Ġcenti mÃ¨tres
g ary
ph Ã©m
ĠPr ague
Ġconsomm ateur
Ġrecom mande
ĠB enn
Ġam Ã¨ne
as o
Ġnoy au
op s
Ġcomb us
app uie
ĠCro atie
ĠMade leine
ici de
aÃ¯ que
Ġmont age
ĠF is
ĠBru ges
ĠreÃ§ ut
B O
Ãī tats
ĠBl oc
ĠH it
ett y
D S
ph y
ĠJ ar
Ġviv es
ĠdÃ©m enti
p o
Ġsec our
Ġmeurt rier
Ġr all
Ġun der
Jose ph
Ġjustif ie
ur ch
Ġar m
ĠEurope an
Ġh erb
Ġcul p
Ġaustral ien
Ġser ons
A A
Ġun is
Ġentrepr is
Ġf ore
ĠP AR
Ġaur ais
Ġ" ).
S a
Ġdomes tique
Ġmet tra
Ġopp ose
Ġ193 1
ĠrÃ©g ulier
ĠA yant
Ġr ate
Ġad mir
ori an
Ġco Ã¯n
Ġeffic aces
Ġc ibles
ĠinÃ©g alitÃ©s
ĠprÃ©sent ait
ĠÃ©m otion
ĠSeu le
Ġcr ises
Ġv arie
ĠH erb
Ġstr uct
t our
ĠlÃ©g ale
Ġbrill ant
Ġmar ches
Ġsalari Ã©
la x
ĠrÃ© nov
Ġparticu les
ĠdÃ©lic ate
Ġbi ologique
app e
Ġmus iques
Ġentour age
Ġsol itaire
Ġmascul ine
ĠrÃ© hab
Ġrespec tÃ©
ĠHam on
Ġpoin g
Ġrac isme
Ġpor c
ul ent
Ġv illa
opp ose
Ġpla ques
g al
iss an
Ã©n a
Ġt at
Ġcons ci
emb r
Ġrefus ent
G arros
Ġrevi endra
ĠhiÃ©r archie
Ġn ow
ĠÃ©vent uel
ĠM ig
Ġcou ches
Ġcommiss ariat
aur aient
Ġren once
ĠrÃ©g ulation
Imp act
ver sion
ira c
Ġag i
ĠLec lerc
at ter
Ġache vÃ©
ĠD roit
Ġat ter
s ung
Ġquelque fois
Ġr a
ĠI a
Ġtou chant
ĠdÃ©p endance
Ġpro jection
Ġgar n
Ġim meubles
ou Ã©e
Ġartifici elle
er vent
Ġparf um
Ġcol omb
Ãª nes
ĠrÃ©jou it
Ġphysique ment
Ġj um
ĠEn f
Ġregard ant
ach t
ĠHe in
Ġh oriz
Ġcas e
Ġfamili ales
Ġv ouli
Ġt onne
Ġc Ã©lib
ĠdÃ©velopp Ã©e
mb les
l ind
ard Ã©
arr en
Ġbri Ã¨vement
d le
A mer
quis itions
ĠT omm
Ġprati quer
Ġcontent er
ĠÃ© met
tr onomie
Ġ192 6
empl oy
Ġnavig ation
Ġtend ances
App le
Ġmen ant
Ñ Ģ
lÃ©m atiques
yg Ã¨ne
ĠM oins
Ġ9 6
ĠChristoph er
ĠT emple
Ġsurn ommÃ©
Ġvain cu
ĠVolks wagen
Ġpo Ã¨mes
Ġmarchand s
ĠrÃ©par ation
ĠE ast
av an
Ġprod uisent
ingÃ©n ieur
Ġd ise
ĠchÃ´me urs
Ġch ag
Ġmerveille ux
Ġ19 12
ĠCa en
Ġh aÃ¯
Ġfisc aux
Ġpr enne
ĠBr est
sionn aire
ac tif
ĠJ ong
Ġoccas ionn
Ġsour is
eau me
ĠAu teur
ĠB Ã©l
Ġparti elle
ĠgÃ©nÃ© reux
Ġau f
Ġbou dd
ĠÃ©t ouff
Alex andre
ĠS um
Ġrede v
k ara
bo ard
Ġcostu mes
ge oise
Ġsac rÃ©e
Ġenvoy Ã©e
Ġan tique
B e
Ġexpl oser
ĠF rÃ©
tr os
Ġoppos Ã©s
Ġc age
Ġcomp any
Ġoccident aux
Ġg row
C or
Ġex amin
ĠR ot
20 16
Ġal lusion
an onymat
200 9
Ġinqui et
Ġbourg mestre
ĠIns titu
Ġincl ut
ĠcaractÃ©ris tique
Ġremport ant
A p
Ġt ribu
Ġdispar aÃ®t
Ġin Ã©v
ĠYann ick
ĠP el
Ġeng age
Ġexpli quant
auss Ã©e
Ġpar don
Ġ192 1
ĠAr gentine
Ġd ata
us cule
ĠphÃ©nom Ã¨nes
In ternet
ĠGal les
ĠrÃ©fÃ©r ences
et o
Ġcapit aux
Ġhistor iens
Ġpo Ã¨me
ĠS ap
Ġpay Ã©s
intÃ© rÃªts
ĠK an
ĠL aissez
Ġar d
fli x
ĠColu mb
her be
ĠTh aÃ¯
Ġst ate
ĠP R
U T
Ġman agement
ĠTh i
Ġdisposi tifs
Ġred Ã©c
ĠdÃ©clen chÃ©
Ġsa urait
Ġeffec tif
Ġimpli quant
ĠInst agram
ĠvÃ©rit ables
Ġgross esse
ig rÃ©s
Ġa ig
ĠP ublic
ar isation
Ġpropag ande
ĠB av
olog y
Ġmort es
Ġcal mer
L A
ĠdÃ©cri re
Ġman iÃ¨res
burg h
ĠB ond
Ġemp Ãªche
Åĵu vres
ĠdÃ© vi
Ġbou cle
ĠD Ã©velopp
ĠCont re
Ġmante au
Ġg Ã©rÃ©
Ġpseu d
ĠG uer
Ġindi ff
ad olesc
Ġsp ons
Ġref er
Ġpat rie
ĠT ig
Ġactionn aire
Ġm ost
ĠP anth
Ġguit ariste
Ġv ulg
Ġe ine
ĠindÃ©p endance
ĠÃīc oute
ĠKad hafi
Ġc ost
ĠB ull
Ġre ct
Ġcommun istes
a Ã«l
Ġs Ã©r
ĠF all
Ġan tis
Ã©c outer
Ġbr iser
ol itaine
Ġcomp il
Ġtour ment
iss er
R ouge
ĠAut riche
ĠdiplÃ´ mÃ©
Alle mand
Ġappel ant
ĠLÃ©g ion
ĠD Ã©t
Ġacc orde
Ġf illette
ĠexÃ©c utÃ©
Ġtiss u
ĠspÃ©ci alisÃ©s
ĠJ ou
ĠChe f
Ġd ensitÃ©
Ġremont Ã©e
ĠEc oute
Ġm Ã©ri
ĠRÃ© union
st on
ĠO ccident
Ġquinqu enn
Ġtraditionn elles
Ġent ame
Ġem m
te ch
s ay
Ġad h
as y
Ġdev ise
ĠVill eneuve
Ġl Ã©s
Ġf res
Ġexc Ã¨s
ĠÃ© man
av age
ĠmÃ©c onn
Ġconv o
Ġass istant
Ġac cessibles
Ġser rÃ©
le ver
ĠÃ©quip Ã©
ĠSoud an
ent housiasme
Ġred ressement
Ġsec rÃ¨te
Ġter rib
Ġdiplom ate
Ã©t ersbourg
ate au
20 11
ĠpossÃ©d ait
Ġ192 7
Ġpon tif
ĠfrÃ©qu ente
Env ironnement
ĠSund ay
ici ens
ĠSe bas
ĠcrÃ© anciers
am iral
Ġtrot t
Ġsatell ites
Ġg et
o a
Ġfin ales
onne ments
Ã©qu ilib
erci ces
Ġr i
Ġaccomp agne
Ġun iversitÃ©
ĠdÃ©t ente
Ġsa che
ĠCal gary
ĠRÃ©sul tat
Ġsensi bilitÃ©
Ġf lu
ĠA yr
Ġacc um
ĠCar ter
Ġprob lÃ©matique
qu itÃ©
Ġtrist esse
aisse ur
Ġinter commun
p rod
ĠEsp agnol
Ġh im
ur ies
ĠSu z
ours es
ini um
Ġdist ances
end o
all o
Ġrencont rÃ©s
Ġfou illes
Ġdiplom atiques
Ġvainque urs
Ġincendi es
Ġsoi gne
ĠVars ovie
Ġ192 2
ĠM itch
ra pe
Ġinter dite
Ġcher chait
Ec onomie
Ġsing uli
Ġhypoth Ã¨se
20 10
Ġprud ent
Ġbous cul
ĠBar Ã§a
A qu
Ġdev riez
ĠprÃ©sent Ã©es
Ġ0 4
Ġfid Ã©l
veill ance
entraÃ® ner
ĠB aud
Ġs Ã©c
f am
Ġmin istÃ©ri
Ġr ip
os ter
ĠC ah
ern er
Ġcit ant
OT AN
Å «
ge ant
ĠK ent
identif ier
Ġpne us
Ġfig ur
Ã©n or
Ġdev oirs
pr Ã©h
g y
Ġperd us
ĠTe am
ĠG es
Ġappar ence
ĠSil va
Ġch ers
ex tension
ĠÃ©conom istes
Ġi mb
ĠTur in
Ġfac ilitÃ©
ĠgÃ©n ial
Ġintellig ence
Ġchois ie
Ġ Åĵil
Ġsurv Ã©cu
ne z
M a
enc ad
ĠdÃ©p ense
mble don
ur ity
Ġdiscrimin ation
ĠM M
Ġav ouÃ©
Ġman quait
Ġbless Ã©es
Ġdispar us
ĠdÃ©fin it
ut ant
ĠÃ©tab lit
ill ard
ĠintÃ©ress ante
ĠDÃ© partement
esti me
Ġc assÃ©
import antes
Ġgar age
ĠrÃ©vÃ©l ation
gu ay
ĠChamp s
k ina
ti ts
Ġmeu bles
di vers
ĠR iver
Ġ use
ĠL at
Ġad ditionn
fait s
Ġex ception
ĠS or
Ġparle z
ĠbÃ¢ti r
aper Ã§
e Ã»t
ĠL ight
Ġami tiÃ©
Ġsembl ables
Ġph ases
Ġfabri quer
Ġbl oquer
Op en
Ġchauss Ã©e
ĠrÃ©d acteur
ĠrÃ©serv Ã©e
ĠdÃ©lÃ©gu Ã©s
rit z
Ġv ar
Ġsoir Ã©es
Ġpor teur
Ã© Ã¢tre
Ġ192 3
ĠN PD
ĠdÃ©rou lÃ©
ou tier
ĠdÃ©f ensif
ĠHar vey
Ġtort ure
Ġsa ura
Ġprof ess
ĠSon y
Ġent housi
Ġven ues
C ela
Ġs aga
Ġsynth Ã¨se
et a
Ġcon cession
Ġpropos Ã©es
ĠQu elles
Ġencour ager
Ġsurf aces
pi rer
ĠSl ov
ĠL ouvre
Ġserv ant
Ġcons cient
ĠFor ces
ĠCl ark
ĠrÃ© tic
ĠLab eaume
Ġvers Ã©
Ġexam ens
ĠMar ion
Ġrend ait
Ġs ets
Ġpot entiellement
Ġbou tiques
asse z
Ġsommet s
emp orte
Ġcotis ations
ib as
obs ervatoire
Ġb Ãªtes
inv asion
ĠC C
ĠK on
ĠA re
oi es
Ġafric ains
aband onner
om ique
Ġdoule urs
Ġsol de
a use
In see
ĠOs car
ro ise
ĠD ae
y me
Ã´t res
ĠcrÃ¢ ne
ex t
el i
ran ch
ĠintÃ©ress Ã©s
E T
Ġb id
Ġpor tion
ĠÃ©t onn
em mes
Ġvari able
ar tic
ĠP ard
Ġj adis
ran ces
ĠT andis
Ġramen Ã©
ĠcrÃ© ateurs
Ġsignific ative
Ġarriv ant
don Ã©sie
E glise
ran g
Ġcomp arer
ĠindÃ©pend an
Ġboudd h
ĠmÃª lÃ©e
ĠrÃ©c its
Ġexempl aire
ar dier
Ne w
ĠG ame
Ġh Ã©b
ĠChar le
Ġtou chÃ©e
Ã¯ s
ĠpÃªche urs
E tienne
Ġbr usque
Ġdir ai
om en
ĠComp any
Ġtrouv ant
oll ah
ĠWi mbledon
asse ment
as ie
ĠdÃ©g uis
Ġfer mes
ir ai
ĠrÃ© cep
3 00
P P
resse ur
ĠBou cher
Ġpure ment
Ġson ore
at ric
Ġretr ans
de v
Ġfem elle
as a
Ġsuper mar
oss es
Ġpour riez
d r
Ġlib Ã©rale
ĠRom ains
Ġid entique
aÃ¯ d
Ġport ail
ĠdÃ©g age
zon a
accue illir
Ġo eil
roÃ® t
lant a
u itÃ©
G A
m il
ĠNeu f
ĠNet flix
ĠSt one
Ġdi vid
Ġfestival s
rop ole
Ġsoup Ã§ons
Ġd as
Ġir rÃ©g
t ot
Ġimmob ili
ol ais
ol n
g on
ap an
ong es
ĠLa z
b ien
Ġlibre ment
ĠreÃ§ us
all ah
Ġmobil iser
ert es
a qu
ĠAl li
Ġn aÃ®tre
ĠamÃ©li oration
ĠP or
ĠA x
Ġop inions
ĠHous ton
Ġreb onds
ĠEd ouard
Ġoblig ation
Ġspect ateur
ch an
ann ulation
Ġboy c
Ġpi aniste
Ġ12 5
ul Ã©es
Ġrep l
Ġr amp
Ġach Ã¨te
ĠAt tention
Ġrep ro
Ġall Ã©s
alle t
Ġin accept
ĠO rig
olog iste
Ġrach eter
Ġconv oquÃ©
ar tis
Ġlaiss ait
ĠShang hai
ĠÃ©qu ival
Ġconstruction s
Ġm aux
or ent
Ġrecru ter
Ġhy bri
ĠdÃ©c oration
ĠFor um
Ġstock age
ong er
Ġpl ages
Ġ9 1
ĠFr Ã¨res
ai lier
ĠG ary
ĠTh urs
ĠRen aissance
ĠAir lines
ass ant
Ġpous siÃ¨re
U Q
Ġsou tiens
w en
Ġindivid uelle
ĠlaÃ¯ citÃ©
ĠÃ©merg ents
ĠPed ro
Ġar gentin
on el
Ġse igneurs
ova quie
ur Ã©es
ĠI ni
ĠQu es
ici e
od Ã©
ĠÃ©tr oite
Ġpes er
Ġuni forme
Ġv el
ran e
Ġhyd ro
ĠC er
Ġpas teur
Ġdiff user
exp ansion
Ġven geance
ĠSingap our
ĠSyn dicat
Ġaccord er
US A
ĠfrÃ©quent ation
ĠJ in
Ġreven dique
ĠÃ© ri
ĠB asse
Ġtechni cien
Ġex tension
ign ons
Ġmour ut
Oli vier
Ġ190 5
ĠM Ã©n
ĠpÃ©n ale
Ġreprod uction
en sible
Ġdonn Ã©s
ĠPres ident
ĠCh Ã¢
Ġw allon
Ġnot ori
Ġf Ã¼r
is m
g uerre
ac Ã©e
Ġaff ili
Ġtransf erts
ĠAl an
Ġh umeur
Ġbord el
Ġangl o
ĠSch ne
asse oir
ĠÃ© me
Ġsan itaire
ĠÃ©ch o
ĠChamp agne
rig ue
ĠS uite
E h
ong a
Emp ereur
Ġf lex
Ã©ri es
Ġenle ver
ou z
Ġpl ur
Ġapp liquer
Ġmilliard aire
Ġvesti aire
ĠV III
Ġren oncÃ©
eu l
ex agone
Ġin j
ĠB ord
Ġrur ale
ĠBl o
ĠdÃ©f ait
s oit
Ġvacc in
Ġin Ã©dite
z heim
eur re
oc al
Ġport s
aff ich
Ġinter cep
Ġad verse
Ġinter mÃ©diaire
ĠDi ane
Ġneu tre
Ġoccup ent
Ġw here
enz o
Ġex erce
c ence
Ġindi ce
ĠEx pl
o tÃ©
ĠFern ando
Ġmen Ã©s
op timis
Ġseni ors
Ġposi tifs
Ġabou ti
ĠcomplÃ¨ tes
app lique
bour ne
Ġbomb es
ĠF ourn
inde mn
A ub
Ġs omm
Ġch ic
ĠÃ©colog istes
Ġorigin aires
Ġg uise
Ġsug ges
Ġviol ation
ette ment
j ardins
Ġinst ances
Ġrent abilitÃ©
ĠO t
ĠMond ay
ĠV Ã©n
Ġruisse au
ĠprÃ©sid Ã©
ĠAub ry
Ġcl ose
Ġcens ure
rastr ucture
el t
Ġsurviv ants
Ġc end
ĠAn s
ĠcomprÃ©h ension
Ġexplic ation
Ġcr yp
Ġbois sons
Ġb it
os yst
N o
Ġratt rap
Ġcraign ent
Ġc oins
Ġven ger
Ġper ception
Ġsymp h
h Ã©bergement
Ġcar ic
ĠT od
Ġterre ur
ĠC Ã©cile
hÃ©r ents
ans as
Ġcon formÃ©ment
Ġprol onge
tr ation
ĠmontrÃ©al ais
ĠprÃ©sente ment
oy a
Ġrou e
ĠpÃ©tro lier
ĠS ig
un al
e me
g ence
ent er
Ġautom obiles
Ġcomp enser
ĠportÃ© es
ĠAr c
az i
ĠAr d
ĠBl ues
Ġsou tiennent
ĠS ask
av ent
pec ted
P e
Ġbless Ã©e
at che
Ġadministra tives
Ġeur ent
Ġpr omp
Ġch ou
inter rog
import ants
Ġru de
ĠlÃ¢ chÃ©
Ġnom mÃ©s
Ġag ression
ĠQu els
B r
we en
Ġac tivement
ĠSÃ©n ateurs
ti p
che min
Ġprot ester
ĠÃī tienne
ĠRobert o
ens tein
ĠprÃ©sent era
Ġd ose
Ġpl ait
Ġ9 4
Ġgaranti es
ĠL al
EN T
Ġbac tÃ©ri
ĠPhilipp ines
is ants
ĠCh irac
Ġo il
ge d
Ġincl ud
Ġar ran
Ġconfront Ã©
tionn ellement
N T
y on
Ġv il
ĠvÃ©tÃ© ran
ac le
onc ture
Ġag it
Ġcui vre
Ġten ues
ĠillÃ©g al
ction n
Ġmar quÃ©s
ci ers
ĠCent ral
loc u
Ġgar es
Ġmir oir
ĠJ os
ĠG ue
ab i
ĠP ad
Ġsembl ant
Ġmotiv ation
ĠVÃ©r onique
Ġnotori Ã©tÃ©
Ġplan cher
ĠDall as
Ġrume ur
ĠC IA
ouver tement
ail y
Ġath lÃ¨te
Ã©t al
ĠVi etnam
Ġhe bdomadaire
Ġser gent
g ique
di rec
Ġinterpr Ã©tation
Ġsucc Ã©d
Ġsa peurs
ĠRon aldo
ĠTr in
k es
Ġp omme
Ġ19 15
cien nes
ind ustri
Ġindustri es
o die
Ġpr ouvÃ©
isc op
li o
ĠGon z
* *
A c
Ġtrouver a
Ġaccue il
Î ¹
Ġcontre r
i Ã¨mes
ab ou
Ġcon joint
ent ourage
ĠÃ©g ale
ĠEur opa
ĠPar ibas
Ġass iste
ĠPrin cip
Ġhor rible
arg o
ĠLis a
ĠCommer ce
Ġinvent Ã©
Ġd angers
ĠL inc
as ter
Ġindic ateurs
Ġcont actÃ©
ense ign
mb erg
ĠÃ©qu ivalent
Ġpar viennent
Ġma qu
Ġc odes
Ġcort Ã¨ge
Ġis olÃ©
Ġanalys te
ĠMex ico
Ġdoctr ine
Ġti rÃ©s
Ġha usses
ese arch
ĠS Ã©l
ĠdÃ©cis ive
B ar
Ġn utri
Ġcorrec tement
Ã©l arg
illi ers
Ġexpos Ã©s
ĠV allÃ©e
ĠÃ©di teur
ĠCor n
Ġrel atives
Ġcli chÃ©s
Ġinter diction
ĠsÃ© cher
Ġtechn ologiques
ĠB uc
ĠreprÃ©sent Ã©e
ĠCF DT
ĠS auv
Ġc ors
Ġpart ent
si bles
Ġrou ler
sh ir
Ġvoy ons
ope z
h yp
Ġcircons criptions
Ġr oses
al arme
di ctions
appel ait
ĠPaul o
ĠC Ã©d
ĠP ris
ĠC oun
Ġab b
resp ons
offici er
je an
Ġ ouvertement
ar en
Ġplan che
ĠBu en
Ġt endu
Ġdou ter
ĠIn v
or isation
od ore
Ġp Ã¨res
ni k
Ġve iller
ess ayer
Ġbas que
aÃ¯ ne
Ġleaders hip
in ho
ĠdÃ©t aille
Ġroman tique
Ġsol itude
ĠS Ã©rie
Ġcomm ettre
ĠY v
ont Ã©
ĠimmÃ©di at
Ġenregistr Ã©s
Ġal Ã©
as ka
Ġb ais
t abil
Ġopport unitÃ©
Ġrepouss Ã©
ĠNouv el
onn iÃ¨re
Ġgui d
ĠP il
Ġ osc
Ġcol le
ĠBru ce
ĠÃ©car tÃ©
ĠC ac
Ġcit ation
ĠscÃ©n arios
ath lÃ¨te
Ġarchite ct
appro visionnement
ĠG are
ven ant
ĠentraÃ® neurs
lo o
s tein
Ġtu Ã©e
em a
d oc
ĠC elles
Ġconfir mation
ĠbÃ©b Ã©s
lo ge
h Ã©roÃ¯
ĠsystÃ©matique ment
Ġf ief
ĠillÃ©g ale
Ġatt ack
Ġch asser
ĠEm ma
que z
ĠDi ables
fond ateur
ĠdÃ©s espoir
ik a
Ġass urance
Ġcou chÃ©
ĠPy ong
Ġdomes tiques
ĠA ch
Ġtromp er
Ġeffectu Ã©e
en cl
Ġescl aves
acc Ã©der
inves ti
ĠPÃ©r ou
Ġg olfe
Ġmar athon
Ġinform atiques
ĠLu ci
Ġtraject oire
Ġcont am
ĠNouv elles
N ic
ĠF ir
l og
est a
ĠB eck
ic ales
ĠTrÃ©v oux
ĠT an
ĠF ait
ĠdÃ©v oile
ĠdÃ©b ris
Ġcon vi
Ġper mission
r ud
Ġaffront era
ĠBarb ara
Ġprot agon
effec tif
ĠR oc
Ġgouvernement ales
- "
Ġinsurg Ã©s
Ġc aution
Ġvaisse aux
ĠT GV
ĠR esearch
ĠN GC
da q
Ġcl oche
ĠBill y
ĠLis bonne
ĠR ugby
Ã©ra teur
Ġpalestin ien
Ġhor aires
opp oser
in aug
Ġafric ain
ol phe
c us
ert y
ĠGau lle
Ġex h
i as
Ġg Ã¢teau
si x
ĠMar che
Ġrel ay
Ġviv ante
ĠbrÃ©sil ienne
yg i
u Ã©s
Ġmultipli ent
li ch
ĠN ich
Ġdisc rÃ©
yn am
H exagone
erc er
w i
ĠT ues
Ġplan ches
Ġm enti
Ġb iblioth
4 00
Ġcy lind
Ġconfr Ã¨res
ĠHaut s
Ġcomb ler
Ġindi g
par tie
ĠSam sung
Ġvain cre
advers aire
IN E
ne c
Ġvol ati
G M
Ġmusic ales
Ġlit toral
ri els
ant enne
tÃ©ri eux
ad t
Ġcal c
Ġimag inÃ©
ĠÃ©di fice
in ten
at ors
ri p
Ġmod estes
orti e
Ġc rier
Ġa Ã©roport
ou ches
ĠI X
r ar
Ġconsult ations
ĠsÃ©par Ã©s
Ã©lab oration
imp Ã´ts
Ã©rÃ© ment
Ġpart agÃ©e
ch ange
ĠNas daq
Ġn ov
Ġgal a
ĠtÃ©moign ent
Ġrecue illir
Ġcomp licitÃ©
iti mes
Ã©lÃ¨ ves
ĠH az
Ġann uels
ĠthÃ©rap eu
Ġa de
Ġsoix antaine
OM S
ĠM atte
d or
Ġriv iÃ¨res
U P
Al ain
ĠcomÃ©di enne
oh n
Ġw all
Ġbloc age
C ol
Ġproc urer
fic tion
ĠCol orado
Ġet hn
Ġen rich
que ur
D R
ĠGord on
Ġeu h
ĠN athan
ĠÃ©t endue
Ġpublic itaires
g uer
ĠT roy
ĠmÃ©dic ales
Ġ19 13
ĠFren ch
Ġappar tements
a ussi
ĠGu ardi
ĠMe di
ĠÃ©lector ales
Ġfran chement
um inium
ĠRap haÃ«l
f ai
ĠAll en
ĠIb rahim
Ġn er
par lers
erv ateur
Ã©p idÃ©mie
ÃŃ n
Ġp ompe
ĠK ra
Al l
tiss ants
Ġcas que
ĠTues day
ĠR emp
Ġenregistr Ã©e
Ã©lÃ© ments
Ġsouhait er
Ġbar rages
accomp agner
orb ite
uti ves
oub lier
ĠMe yer
Ġlu miÃ¨res
ĠM it
aur ont
Ġoptim iste
ĠfunÃ©r ailles
ons o
Ġexpli quait
og ie
ĠC az
Ġlog istique
ĠW o
Ġte am
Ġbar riÃ¨re
l v
app Ã©
on ciation
f ul
l yn
Ãª ne
Ġb lÃ©
ĠdÃ©rou lera
Ġesp Ã¨rent
be ek
lÃ¨ vent
Ġconfi ant
ct Ã©s
Ġartis tiques
ann oncer
Ġport Ã©s
ĠdÃ©voil er
Ġpro li
Q aÃ¯da
ĠG olfe
Ġcircul aire
ĠPyong yang
prÃ©s idente
ni fer
Ġlarge ur
Ġrenfor cÃ©
Ġbl ague
Ġdoub ler
ra bles
P Ã©tersbourg
ĠMich elle
ĠI an
ĠÃ©t al
all a
Ġambassade ur
Ġmun itions
Ġche mise
ĠÃ©v oquer
Ġappro xim
c entre
ĠL ot
d itÃ©
Ġdiv or
mar k
Ġrelie f
ĠP Ã©l
ĠF ried
Ġdiscu tÃ©
in al
H ar
el ine
app uyer
arr age
anc ourt
Ġparis iens
erc le
ĠprÃ©f Ã©rence
Ã¨ lent
Ġpharm ace
ĠlittÃ©r aires
Ġbr un
eth er
ĠPoli ce
ĠM idi
ale ine
Ġcompos Ã©s
ĠÃī g
ĠH amb
Ġrest a
V I
ĠCo alition
en vis
Ġcompr ise
ash i
20 18
ĠrÃ©hab il
Ġanim Ã©e
Ġcom tesse
ys s
ĠAyr ault
ĠL er
ĠcomplÃ©ment aires
200 8
ĠGene viÃ¨ve
Ã® tre
ak u
oc es
Ġcontro verse
Ġemploy eurs
ĠH avre
Ġtomb Ã©s
Ġcl Ã´t
Ġmobil isÃ©s
ĠdÃ© tÃ©ri
n ers
ĠprotÃ© gÃ©s
Ġcircul er
c ass
ess a
de f
uc ci
ĠN ant
hol m
Ġacqu ise
ĠB ec
ĠBrig itte
Ġrenouvel er
ĠB R
Ġg lisse
Ġclass Ã©s
Ġexpli quent
or ith
ĠM ap
Ġfou et
Ġinc orp
ĠnÃ©g ative
ĠdÃ©tr uite
ĠT ah
Ġsurpr ises
ĠO mar
Ġsour it
Ġpou ce
ĠC P
Ġtraditionn ellement
Ġrur al
Ġtou ch
Ġinc arc
Ġf ug
ĠL omb
ĠSh ow
N otre
ine z
Ġmys tÃ©rie
ĠpÃ©nÃ© trer
ĠNey mar
U I
Ã©c ras
Ġsymb ol
Ġrecher chÃ©
Ġcontempor ains
Ġforter esse
en qu
Ġf aille
Ġcatal an
vi ers
Ġarchite cte
interpr Ã¨te
Ġg ay
ĠR id
ĠThurs day
Ġdrog ues
effectu er
ĠThaÃ¯ lande
Ġprot Ã¨ge
effond rement
Ġcalcul er
b ons
Ġextrait s
Ġvari ations
Ġ ours
din and
Ġpour parlers
tÃ©rie urs
Ġradic ale
Ġvend ue
Ġco qu
Ġpat tes
ĠEr nest
Ġbas cul
aut hier
b ox
oy ons
Ġmys tÃ©rieux
Ġenseign ant
v ol
ĠF iat
Ġres se
Ġpromo teur
Ġexp Ã©di
Ã©limin ation
ĠlÃ©giti mitÃ©
ĠC AC
iss Ã©
Ġvers ant
Ġved ettes
f l
Ġfl amme
aÃ¯ a
oci de
est at
Ġ20 22
Ġcompli ce
Ġpist olet
Ġprovo quant
Ġsorti ra
Ġs ons
Ġreconn us
Ġins crite
Ġmang Ã©
ĠGrec s
Ġeffectu Ã©es
Ital ien
Ġch Ã¨que
ĠdÃ©s olÃ©e
Ġp anc
ag ons
Ġsui vis
Ġh ard
ĠmÃ©di Ã©v
ĠgÃ© omÃ©t
Ġukrain ien
anim ateur
Ġtwe et
Ġprof ondes
Ġbatt ent
Ġchirurg ie
Az ur
Ġmis sile
Ġviole mment
ĠR oth
ce aux
ĠTomm y
on er
con i
Ġform Ã©s
Ġchale ure
ĠdÃ©fini tif
vent us
ĠF ore
ĠbrÃ» lÃ©
P rov
ĠPar t
Ġdu chesse
ĠK erry
Ð ½
Ġcl ocher
tr Ã©s
es tim
ĠC are
Ġindivid uelles
ĠS ier
e i
Ġlob by
cid ence
ath ie
ach i
Ġp oub
Ġtrad uire
Ġdiff use
ĠdÃ© tresse
Ġfl ag
ĠXVIII e
og o
Ġinspir Ã©e
ĠKh an
inf ir
Ġenvis ager
amp h
ĠÃī gypte
ti Ã¨mes
ordin ateur
itter rand
Ġgro tte
in ent
TR Ãī
j ord
Ġt aire
Ġsent ent
Ġintellectu elle
ĠprÃ©c aution
Ġsatisf ais
Ġexam iner
ĠBag dad
i ane
ĠDes jardins
n s
Ġluc ra
Ġaccompagn Ã©s
ĠPÃ¢ ques
ro Ã«n
ĠcomÃ©di ens
Ġinqui Ã©tude
ĠÃ©pr ouv
exp Ã©dition
os n
Ġreconnaiss ant
ĠcrÃ©di bilitÃ©
ac Ã©s
Ġconse ille
ĠMin istÃ¨re
ĠT ang
ĠMar in
and ro
ĠHaÃ¯ ti
ou sie
Ġr och
entrepr eneur
Ġhame au
d orf
ul ant
p omp
Ġvesti ges
Ġfrag il
Ġcoul oir
Ġcock t
Ġl ondon
ik h
ili a
clÃ©s i
ĠE ff
ath lÃ©tisme
Ġass urent
ĠsÃ©d uit
Ġdit s
Ġmin ce
Ġpar as
Ġrev u
hÃ©s ite
Ġpr ier
art he
ĠSp ace
Ġen gl
Ġcher ch
ĠMaj or
ĠLa ke
Ġ19 11
ĠChe val
ĠAug uste
o ve
Ġcondam nÃ©e
divers itÃ©
ĠPar ker
Ġrapp eur
Ġor ph
ĠÃ©di teurs
Ġd ay
ĠD auph
Ġtu y
Ġpo teau
Ġrestri ctions
Ġcad avre
Ġmenac Ã©e
Ġamp leur
ers heim
ĠsÃ©par atis
ot yp
ĠN AS
ĠmÃ©can ismes
M aur
Ġappr ouv
ĠintÃ©ri m
ou ettes
ĠrÃ©alis ations
Af ghanistan
Ġfa une
Ġexerc er
ĠSh in
ĠX i
Ġtourn Ã©es
ĠPit ts
at ori
onn ait
Ġrenouvel ables
ĠdÃ©n oncent
op old
ĠC rai
Ġsanctu aire
Ġordin ateurs
Ġpassionn Ã©
opport unitÃ©
ĠRe y
ens on
Ġpar les
Ġh uis
Ġaut onomie
excl usion
ĠCh yp
Ġtu telle
Ġcar ac
ĠTourn oi
Ġh ome
Ġimpressionn ant
İ les
Ġrassembl Ã©s
Ġmat ur
Cal ais
Ġscol aritÃ©
Ã©t endre
oen ix
Ġcroiss ante
Ĵu vres
P l
Ġs and
p res
Ġpropre ment
ĠTrib unal
Ġform ant
ni Ã¨res
ĠChris ti
ĠConf Ã©dÃ©ration
ĠLinc oln
Ġv ant
Ġbombarde ments
Ġ19 16
ath lon
Ġrob ot
ĠS ib
Ġcond ucteurs
Ġtrim est
ĠIs ra
ĠAl ger
Ġp Ã©p
ois eau
Ġc Ã©rÃ©
Ġcompar Ã©
if iÃ©
ah l
Ġse re
Ġdiss u
Ġcomplex itÃ©
ĠmÃ© chant
ĠAm sterdam
ĠDes champs
Ġper cu
ret t
Ã©d ent
Ã©m erg
ign Ã©
Ġsl ogan
D LR
Ã©l as
Ġvolont airement
C F
ĠJuli an
Ġeffic acitÃ©
Ġtou chÃ©es
Ġpen sions
k ar
ĠF ra
Ġprov iennent
ĠToy ota
Ġadapt Ã©e
Ġs ubli
ĠpÃ¢ le
Ġp oup
int ensitÃ©
Ġf Ã©c
C ap
ac adÃ©mie
Ġt ube
Ġaveu gle
Ġrav i
nes day
Ġobstac les
ĠMo ore
Ġjoue uses
exp erts
Ġentour ant
ĠDe main
ĠRuss ell
ĠhÃ©ri tier
au dio
ĠJen nifer
he bdomadaire
m Ã©t
h aut
r us
ĠÃī t
anti ne
Ġbas il
en cier
Ġpein tres
O tan
Ġfin ancÃ©
ĠrÃ©cup Ã©rÃ©
d al
ĠÃ¢ mes
Ġuti les
or ieux
tin es
Ġ9 7
Ġcompar able
ĠWed nesday
Ġs ors
Ġpas sions
ĠnÃ©g lige
ĠGrand s
Ġemb lÃ©matique
Ġreb elle
Ġex ag
Ġrec uler
Ġcr ash
ĠMe h
agas car
Ġm oulin
ĠH uit
ĠBru ins
Ġpou ces
e mblÃ©e
ĠK ris
ar l
ĠMar sh
lis h
Ġjustif iÃ©
Ġouv rant
ĠMin istre
Ġplate formes
p ins
Ġp ente
on ais
ĠKenne dy
ĠÃ©volu ant
ĠrÃ© tor
Ġcour ante
Ġ190 8
Ġces sez
ĠÃ©p ing
use z
ĠallÃ©g ations
Ġli ve
Ġeng agÃ©es
ran o
att an
y t
Ġaff luent
ĠsÃ©d uire
P M
end rai
ĠsÃ©cur itaire
Ġquinquenn at
Ġpi res
U r
fr Ã¨re
incer titude
Ġcant ons
ĠNÃ© er
Ġeng ager
Ġdisc ret
Ġces sion
Ġfabric ants
Ġcamb ri
Ġmari Ã©s
ĠF R
ign ore
Ġretrouver a
di eux
ĠM ick
og n
Ġminist Ã¨res
ine ment
Ġcompr enait
Ġc ot
re lles
Ġarriv ait
ab lo
ĠP ra
Ġterritori ales
att ribution
Ġfondament aux
explor ation
Ġsignal er
Ġpar s
Ġindi enne
s oci
Ã¨ ches
Ġsoir s
ĠS of
Ġrepouss er
h Ã©ri
ĠÃ©limin er
ĠalgÃ©ri en
ĠHow ard
ĠRach el
Ġorgan es
Ġa Ã©roports
af t
Ġfant Ã´me
Ġsou mise
t Ãªte
TRÃī AL
ĠD ame
Ġoccident al
ĠdÃ©roul ent
arme ment
ĠTh om
Ġheure usement
Ġpermet tront
I ON
ĠdÃ© ni
Ġrav it
ĠPhili p
c ra
Ġs ir
ĠEug Ã¨ne
ist a
ĠdÃ©plac Ã©s
ĠMON TRÃīAL
Ġax es
ĠBle u
Ġent rent
Ġgrimp er
Ġconj oncture
Ġcoup ables
ss on
Ġrecommand ation
it era
Ġfin issent
accomp agnement
ĠH ul
ĠSte in
Ġv ides
Ġmyth ique
U C
om orph
Ġautor isÃ©s
Ġl ion
ĠR ue
ĠdÃ©fav or
Ġb eurre
Ġs ourd
Ġlongue ment
acc al
ar che
Ġess entielle
ĠprÃ©cip itations
Ġcon venu
ĠrÃ©sul te
ch w
Ġpros titu
Ġant h
ES S
Ġbar be
ĠdÃ©rou ler
Ġautomatique ment
Ġmar ges
Ġrec ule
ĠreprÃ©sent ait
est ern
Ġcons oli
Ġsub vention
g rav
Ġcalcul s
Ġautor isation
ĠL opez
ed s
ĠcontrÃ´ lÃ©
P re
al om
ĠA j
F M
Ġretourn Ã©
ĠA ires
Ġsages se
Ġvi tic
ĠSp orting
Ġcuis in
Ġexist ait
Ġbr is
Ġrenv oyÃ©
ĠP Ã´le
ĠA gnÃ¨s
ĠdÃ©s tabil
im ages
Ġsou pe
on gement
Ġhab ile
Ġurg ences
Ġemp ois
ĠS ara
anal ys
Ġpublic itaire
Ġemmen Ã©
ĠC od
ĠdÃ© rive
Ġtomb ent
ĠTher esa
Ġh Ã©m
ille ment
Ġdeme urer
Ġs oie
ĠBuen os
Ġti mide
Ġespagnol s
Ġesp Ã©rant
Ġaur ons
ĠmÃ©d iterran
ĠÃ©t endu
ĠmaÃ®tr iser
Am Ã©ricaine
ĠXX I
Ġm Ã»
Ġcompens ation
ĠGu inÃ©e
di ques
ĠTh at
ĠGir ard
rem lin
ĠF O
z an
Ġh Ã©tÃ©
Ġsan itaires
ĠrÃ©conc iliation
ĠinÃ©d it
Al b
Ġconf ig
ĠGÃ©n Ã©rale
Ġm Ã¨nent
em men
Ġcont ourn
Ġpar ach
ĠCar refour
ou a
Ġplong Ã©
Ġ7 50
Ġsp l
yg ues
ĠMus ique
gl as
ĠN FL
escal ier
ign or
Ġoc Ã©an
ĠLag arde
Ġop en
Ġg oth
Ġbet ween
rog Ã¨ne
ys Ã©es
A B
Ġd resse
ule ux
Ġrecommand Ã©
Ġaband onnÃ©e
Ġli ke
Ġfra cture
Ġpay e
Ġpir ates
ĠB og
ĠF au
Ġsau ce
Ġrelig ions
Ġsuffis ante
Ġcompt able
c Ã´
ĠdÃ©c roche
emp ris
bonne au
Ġex il
Ġobstac le
ĠrepÃª chage
bre u
Ġloin t
ch aussÃ©e
if a
An t
Ġl os
B eau
Ġren versÃ©
Ġne ws
RE M
Ġsur vient
Ġanne x
g or
ĠEspagnol s
Ġpantal on
ĠA C
y ork
ĠC ord
Ġcycl istes
Ġbatt us
r ence
ĠDup ont
ĠB rab
ĠGas ton
Ġbr ass
Ġprovinci ale
ov ine
Ġsupp os
ĠL ie
Ġmens onge
ĠH as
Ġbloc s
Ġv aud
Ġimp Ã©ra
our geois
aill Ã©e
ĠEn t
la ve
Ġb ail
Ġconsid Ã©ration
Ġparticul aritÃ©
Ġb est
fi Ã©es
Ġram Ã¨ne
Ġserv ait
Ġappuy Ã©
ĠB oll
ad joint
Ġphotograph ies
ĠrÃ©alis te
Ġblan chi
am ing
ins pire
Ġot ages
ĠrÃ©g lÃ©
ass ure
ĠF Ãªte
Ġlog o
ol Ã¨ne
intÃ©gr alitÃ©
ĠdÃ©non Ã§ant
ĠU ber
Ġfin anc
Ġouv rier
Ġl oyer
ense igne
Ġb Ã©
ens Ã©e
Ġmorte lle
par ti
ĠRussi a
Ġpoliti ciens
Ġo tt
Ġemp ort
Ġgrande ment
Ġbal ay
Ġf oie
Ġinclud ing
Ġmil les
Ġdomin ant
ĠCh Ã¢te
d own
Ġbr ou
Ġsmartph ones
p tembre
atti rer
Ġp is
Ġromp re
ĠÃ©v aluation
ĠVal entin
ĠFil m
Ġsurpr endre
ĠR ouss
Ġpoll u
Ġn id
Ġatte ints
Ġmodern isation
k an
app li
ou tre
ra ham
us et
Ã©ral d
Ġentrepr eneur
ĠÃ©pous Ã©
Ġv ienne
tionn er
Ġ20 21
Ġnation aliste
Ã¤ r
ĠFin anci
affront er
Ġg ame
Ġvoul ut
Ġrev iens
h aw
ĠB Ã©n
od ge
Ġse gment
Ġflic s
S ur
m ars
Ġse ctions
ĠF ili
Ġnos tal
ĠB aie
ad resser
Ġsupp li
Ġpour rez
d res
ĠdÃ©f aill
en cie
ĠA R
Ġin habitu
Ġsurpr enant
ĠÃ©t oit
amp a
Ġfer mÃ©es
ĠS S
ru guay
Ġconjoin te
Ġsyri ens
Ġrec ycl
el ieu
Ġmen eur
Ġsacri fice
UR SS
ĠrÃ© veill
import ant
ig es
direc teur
Ġsupp lÃ©
ĠH on
Ġmatur itÃ©
Ġvit r
Ġp ais
Ġs ien
Ġenn uis
jac cio
Ġf Ã©li
ĠP oste
am or
p rop
Ġdis sid
Ġchante urs
e uses
ĠAn nie
Ġconfir mant
ĠSim one
ĠW ater
L S
assi que
Ġtermin ant
ĠcÃ©lÃ©b ration
Christ ophe
Ġch ats
Ġmens uel
Ġhui tiÃ¨mes
Ġdrape aux
Ġsubst ances
ĠMad agascar
hÃ©r itage
mb res
ati c
b do
ĠfÃ©d Ã©raux
ĠJ T
Ġtrans met
Ã¨ne ments
ĠK ings
ĠopÃ©ration nelle
Ġbaptis Ã©e
ĠPitts burgh
D P
ĠY ah
ĠR endez
Ġren fort
ĠhÃ©r itage
Ġch utes
Ġal ter
ĠL en
imag ination
OC DE
aou ais
Ġent r
ĠC opÃ©
objet s
ĠRoch elle
ĠSe an
ĠrÃ©un ies
ĠconÃ§ ue
Ġm iel
ĠKen ya
ĠB ess
urb anisme
ĠS ouvent
Ġsou cis
ĠF ro
ĠM itterrand
Ġnouveau tÃ©
ĠN issan
int he
Ġfile ts
Ġkilom Ã¨tre
ĠT ab
Ġan ge
Ġsculp teur
Ġappro fon
Ġex ercices
Ġv este
ĠprÃ©s erv
Ġren verser
Ġfr atern
ĠR im
Ġ179 3
ĠDim it
ĠC is
ill ais
ovan ni
Ġsculpt ures
Ġt om
Ġmol Ã©c
ce d
Ġcoc aÃ¯ne
Ġcour tes
Ã¼ l
Ġd ort
Ã©tudi ants
ĠprÃ©voy ait
ĠEn ter
ĠdÃ©velopp Ã©s
Ġt ake
Ġex act
Ġent am
ue uses
e ctions
ĠBas tia
Ġparti el
investi ture
ĠMati gnon
ĠdÃ©pl oyÃ©s
Q ui
Ġhos tile
es sions
imm ense
Ġmar te
ĠQu ar
af Ã©
ĠrÃ©cup Ã©ration
bl anc
ett o
Ġrel atif
ĠCap it
Ġcorri ger
ĠÃ©quip Ã©s
Ġcoul isses
ĠE lect
Ġappar tiennent
n ess
Ġd urs
Ġop Ã©rÃ©
Ġl ie
ĠMan if
Ġch ristian
Ġla w
off en
tis ation
ĠQu in
ĠPl utÃ´t
Ġinc om
Ġaccus ation
vel and
Ġaj us
uni ors
ĠAutre ment
Ġsemb lÃ©
ĠpÃ©dagog ique
Ġentend us
Ġmultip liÃ©
des c
Ġextr Ãªmes
ĠT o
Ġsouff rent
ĠlÃ©g ers
in os
Ġcompli quÃ©e
Ġbar il
Ġculp abilitÃ©
Ġoblig Ã©s
ĠIn dia
ĠTri poli
Ġp aille
Ġillus trÃ©
Ġchauff eurs
Ġconsul tant
Ã©cur ie
Ġcontro versÃ©
ĠP ower
ĠÃ©t end
onn age
ĠM au
ar ienne
Ġnett oyage
Ġlabor atoires
Ġsucc Ã©der
' )
exp ertise
Ġappli quÃ©e
Ġdisp lay
ĠC yr
Ġdev ienne
Ġami es
b ell
Ġmul titude
ĠMore au
Ġal b
Ġphras es
ĠBÃ¢ le
ar chevÃªque
Ġd ys
ĠrÃ© itÃ©
si Ã¨res
ob tention
ĠÅĵu fs
Ġdot Ã©e
tr aire
Ġqui conque
ar ti
Ġpot able
Ġdesserv ie
Ġret ran
ĠInter nation
ĠPh oenix
ĠBur kina
ĠL oc
Ġlign Ã©e
ĠhÃ©s itÃ©
lin ois
ĠBM W
Ġsal uer
b ot
Ġg ai
an Ã©
Ġcontinu a
itt le
ĠS cience
ĠCas tel
el f
ĠthÃ© ologie
Ġacc Ã©lÃ©rer
Ġhong rois
ĠrÃ© els
Ġtable ttes
extrÃ© mitÃ©
Ġred onner
Ġ ÄĤ
Ġcy ber
Ġgigantes que
Ġvis itÃ©
Ġp end
Ã Ĥ
ĠÃ¨ re
R en
Ġglob e
ĠGagn on
ĠL ife
oll ow
ĠG ouvernement
ĠcinÃ©mat ographique
Ġmon archie
Ġcroiss ant
Ġsyndic ale
Ġp Ã¢te
Ġins cription
ab l
ĠB ibliothÃ¨que
ĠÃ©v ang
ĠP rop
cip ation
Ġexpl osÃ©
Ġsec rÃ©t
Ġsex y
ĠF ay
tr ai
Ġ0 5
Ġobs c
Ġpen cher
Ġincontourn able
Ġgagn ent
Ġa z
Ġbat teries
p ers
aÃ¯ wan
Ġpan ier
Ġbudg ets
Ġcle f
Ġlib Ã©r
Ġamende ment
ĠJu ventus
Ġcour be
Ġblan ch
Ġvol Ã©e
ĠIn g
ĠRÃ©g is
ĠAr senal
ĠBe ach
Åĵ ud
ist res
Ġtrib us
ĠrÃ©di gÃ©
ent r
is sez
ĠT ime
ĠprÃ©s umÃ©s
Ġcigare ttes
w orth
Ġp iliers
th ers
Ġquoti diens
all ois
ĠL ivre
kir ch
Ġconces sions
Ġcontr aign
ĠP ut
Ġparticuli Ã¨res
Ġpar aissait
Ġbox e
Ġc ut
Ġh oule
Ġsucc Ã©dÃ©
ĠK remlin
mb ert
Ġremport Ã©e
ĠLar ry
Ġaf gh
y mp
ĠM ieux
Ġro che
ĠRiv iÃ¨re
C he
Ġsymb oles
ĠtÃ©lÃ©c ommun
anc a
Ġpo Ã©tique
accomp agn
w art
on ction
Ġs ienne
Ġab rÃ©
Ġn ie
ĠT it
Ġjus tesse
Ġsuis ses
Ġacqu Ã©rir
Ġmul tination
anim aux
ĠB ible
ĠmÃ©trop olitaine
dic ation
Ġcom ble
ert h
Ġper Ã§u
Ġass ise
Ġbulle tin
lus coni
ĠG Ã©rald
ĠCar lo
Ġhabitu de
is ti
Ġb ul
am user
ĠZ ur
Ġbio diversitÃ©
ĠcommÃ©m or
iss ance
our ager
Ġform ellement
lÃ¨ ne
ĠInstitu te
th i
Ġcop ine
Ġg asp
ysi que
ĠI le
Ġall ong
Ġsimp licitÃ©
ĠaÃ® nÃ©s
Ġmade moiselle
ĠSoci ety
Ã© chÃ©
app ellation
Ġrepr ennent
Ġpens ons
ĠTe ch
ĠS n
ĠB oh
Ġaut op
ise ur
Ġs oph
ĠprÃ©t endre
ĠC out
ĠfÃ©li cite
ĠL ive
ĠprÃ©occup ation
pro f
inaug uration
Ġinter dire
gu Ã©e
Ġf Ã©ro
ĠK ath
Ġf oire
Ġen r
ĠprÃ©s ide
m os
Ġcour riel
ĠP elle
Ġcomp ositions
pe g
W h
ĠL l
Ġman Åĵuvre
nes ota
Ġpol it
Ġvert us
accord er
g ate
ĠprÃ©f Ã¨rent
ĠWind ows
Ġchang ent
Ġriver ains
Ġcout ume
ĠItal iens
Ġver b
Ġm ill
Ġcontinuer a
Ġth rough
ĠdÃ©p endant
Ġpou les
ĠMonte bourg
Ġjou ets
Ġme cs
ĠZ h
Ġn Ã´tre
Ġop timis
Ġregroup ant
es tement
ex empl
Ġemploy Ã©e
C on
ins tein
ĠpÃ©qu iste
Ã©lec tr
en aient
ĠCal ais
ĠmÃ©t aph
Ġm ien
ac tiv
G rand
ĠCap itaine
Ġl ai
ĠCÃ©d ric
ĠS ang
Ġal la
- ,
" ?
om ac
ale t
Prov ence
ĠFab rice
Ġ190 6
ac re
Ã©c ologie
re aux
Ġprim es
ĠSchne ider
ad hÃ©sion
ĠMor in
onne c
ĠH ann
en rich
ĠrÃ¨gle ments
ĠF a
Ġferme ment
Ġasi atique
I le
Ġcher chant
Ġindustri elles
Ġlanc Ã©s
ĠJuli a
ym ne
v oy
Ġnu age
ĠSerg io
ĠStÃ©ph anie
ĠrÃ© veiller
Ġtranquille ment
Ġemb arr
Ġcru cial
Ġacc rue
aci de
Ġsch Ã©ma
Ġver sement
Ġfoss iles
Ġcitoy enne
j am
ĠF ac
ette l
Ġrec rue
Ġratt raper
ĠstupÃ© fiants
ĠV illa
Ġdi alog
ĠhÃ©licopt Ã¨re
ap arte
s c
Ġenvelopp e
Ġp oul
aguen au
Ġspec tre
ĠPr enez
Ġcad et
Ġsus pec
Ġroul ant
d Ã©c
Ġappli quÃ©
ĠWin ni
ec d
ĠVer d
ĠrÃ©pond ent
Ġtrans it
Ġsymp a
Ġentour Ã©e
Ġremplac Ã©e
me ur
ĠaisÃ© ment
if t
Ġrel Ã¢che
al ine
Ġache vÃ©e
A cc
O cÃ©
ĠfÃ©min ines
itoy ens
ak o
ĠdÃ©missionn er
ĠtÃ©les cope
Ġabs orb
ou illes
ĠprotÃ© gÃ©e
av ortement
Ġcass ation
ĠMax im
Ġdict ature
Ġver tic
ĠCo oper
Ġpolici Ã¨res
ĠMatthe w
Ã©n avant
ĠBer lusconi
Ġpron once
inv itation
Ġseni or
ĠCoh en
Ġrepr enant
ales tine
Ġcollab ore
ĠthÃ© ories
Ġinterrog Ã©s
ĠM R
Ġec clÃ©si
op oli
Ġp iv
L ib
Ġlaiss Ã©e
Ġbou ff
Ġrapp ellent
oub lie
Ġdiss olution
Ġar range
ande z
Ġur nes
Ġtram way
atche wan
ĠreÃ§ ue
Ġinv itation
ĠCorp oration
Ġ188 0
ĠK id
Ġca ve
ĠDÃ©velopp ement
Ġcon for
tr ans
ĠDae ch
pomp iers
si bilitÃ©
Ã©merg ence
alis ent
oy Ã©e
Ġplong Ã©e
Ġcont este
ĠN E
ĠdÃ©p ort
ĠdÃ©c rite
Ġconc Ã©dÃ©
Ġs tip
ĠIm ag
ĠLe m
ĠPrin ces
ĠdÃ©f unt
h op
Ġde f
grÃ© di
l ux
Ġcons ole
o Ã«
ĠreprÃ©s ailles
pr on
Ġre tenus
aff ron
ĠSÃ©g olÃ¨ne
Ġor chest
Ã©nÃ© zu
Ġautor isÃ©e
A le
r ure
w are
ĠmatÃ©ri els
ĠCy ril
at he
ĠLu ke
Ġpatin oire
Ġcon cevoir
Ġcontribu tions
ĠprÃ© jug
Ġvas tes
Ġpoule t
Ġrenv oie
Åĵu f
an at
Ġv amp
Ġlourde ment
Î ½
accomp agne
C es
Ġpsych ologie
og Ã¨nes
ĠF eu
ih r
Ġfin aliste
In d
ĠÃ©p ic
Ġfor um
Ã©p ous
$ .
Ġexp Ã©dition
ĠbÃ©nÃ©fici aires
ĠBulg arie
ox ygÃ¨ne
ĠmÃ©m oires
Ġperd ant
ĠS ad
u v
di ennes
vis ions
Ġpar ut
Ġimmob iliers
Ġinter locu
Ġpar venus
atta ques
D i
ent Ã©
Ġren fer
Ġregroupe ment
ĠCle veland
Ġ17 0
Ġmanne quin
le urs
ĠMondi aux
ĠS now
Ġrev ues
ĠdÃ©b orde
am us
Ġris quer
Ġd out
ĠP ir
ĠmÃ©l anc
Ġtempor airement
Ag riculture
Ã© tern
Ã©s uites
ĠMor ris
ĠpÃ©troli Ã¨re
Ġpris ons
ĠdÃ©v as
instr ument
ĠH end
ann iversaire
ur des
en ons
av eu
ĠnÃ©er landaise
Ġball ons
Ġmette ur
ĠS anti
Ġre z
Ġarriv a
ad os
Ġporte urs
ĠBou ygues
terr issage
Ġsa ti
v ing
ĠdÃ©c ors
ier ie
Ġ190 1
ĠMartine z
ap est
arg er
ĠUnivers ity
Ġ190 7
ĠC M
Ġsal ue
Ġdescend ants
Ġconvers ations
Ġhum our
Ġeng end
Ġenvis agÃ©
Ã©r aient
Ġf ib
ci el
Ġth ink
ĠV oir
ra f
ace ae
us k
Ġpharmaci e
g ences
Ġpir at
Ġimp rovis
ĠV il
Ġorgan ique
c ars
ĠN ag
ĠChyp re
ĠDou glas
Ġp akistan
Ġoccup Ã©s
ĠGrÃ©g oire
ĠHit ler
Ã©t age
h ieu
ĠG P
ĠsÃ©min aire
pr Ã©
Ġop tique
ĠK a
ĠH ir
ĠfÃ©d Ã©rales
ĠV ert
Ġcol is
ĠA ustral
auf rage
Ġcont amin
Ġord onnance
Ġinvol ont
ajout ent
Ġb ret
ĠdÃ©clar ant
orie use
Ġn arra
ĠT ai
Ġso eurs
r aille
Ġanim ations
Ġmagaz ines
v ais
Ġcolon isation
Ġvis ent
ĠdÃ©sign ation
Ġm Ã©s
Ġs Ã¨che
ĠDomin ic
ĠV and
Ġs ales
Ġmort alitÃ©
ĠmÃ©ri di
Ġhabitu Ã©
emb ar
Ġdi ale
ĠGi ovanni
gr oupe
ĠS che
Ġplac Ã©es
E gypte
_ ;
u al
f ille
Ġau dition
Ġbat aillon
ak ing
Ġcont estÃ©
Ġpo il
ĠSÃ©v ille
Ġcou de
Ġcons ommer
Ġcont acter
ĠMan h
Com ment
ĠrÃ©ci di
ĠcarrÃ© ment
Ã©nÃ©zu Ã©li
ĠÃ©conom iste
ĠWinni peg
excell ence
Ġsur c
Ġprolong Ã©
ĠM assi
Ġsalari ale
Ġquanti tÃ©s
Ġinterven ants
Ġrej ette
Ġcorrespond ent
ĠAb ou
ĠG authier
Ġanti d
Ġgri Ã¨vement
Ġsusp endre
Ġsupp osÃ©
Ġhau tement
ĠF uk
ĠSu Ã©d
Roy al
Ġl ouer
ti tre
ĠdÃ©c rÃ©
av ie
ĠMig uel
Ġcons olid
r aire
ĠcrÃ© ent
Ġcol ons
ing o
ĠGlob al
Ġla ss
Ġstric tement
Ġachet eurs
ĠÃ©criv ait
ĠB ran
at z
imp asse
ĠSebas tian
al and
ĠÃ© oli
aign Ã©es
f us
Ġb ic
ĠgoÃ» ter
Ãªte ment
ĠpÃ©n alitÃ©
Ġacqu it
ann er
ĠKar im
Ġsign aux
Ġpr Ã©lÃ¨ve
or ne
Ġfl ou
Ġrefus ant
Ġti m
Ġd opage
Ġn Åĵud
ĠN ombre
ix e
w ing
ĠAd rien
Q UE
Ġoff erts
Ġ190 9
Ġcul min
Ġstat ues
Ġs ombres
Re vue
Ġnett oyer
Ġhistor ien
Ġsembl aient
Ġv all
empris onnement
ĠÃ©loign Ã©
Ġcl ergÃ©
udg et
aurÃ© at
Ġp ique
ĠD ist
Ġadop te
Ġass umer
ĠBob by
ĠGeor g
id ents
Ġnational istes
ĠbrÃ» ler
ĠT ol
Ġstr at
ĠfidÃ©l itÃ©
ĠintÃ©g rÃ©e
ĠFer dinand
Ġtromp Ã©
Ġr ame
Ġpr Ã´
am ie
ense ur
Ġpsychi atri
Ġt ro
ĠdÃ©couv erts
od er
Ġconcent rÃ©
Ġs till
ĠP oly
ĠChar te
am use
he ures
ĠentraÃ® nement
ĠÃ©val uÃ©
Ġanc Ãªtres
Ġb erce
Ġressor tissants
Ġk id
ĠFin ance
Ġcend res
ĠpÃ©n urie
ĠTr ente
ĠP aci
ĠF ly
av ancer
Ġfondament ale
Ge orges
In di
Ġin si
Ã©t rÃ©
og g
occ urrence
Ġin attend
ur ants
si Ã¨ge
Ġtrah ison
esp ionnage
Ġl ente
gn er
Ġag ressions
Ġp acifique
ĠG M
Ë Ī
Ġinf ec
Ġ18 30
ĠÃ©c ossais
Ġin grÃ©di
Ġcouv erts
Ġvuln Ã©rables
Ġgre ff
ĠPh illi
ĠrÃ©s ident
Ġsi ch
vis uel
Ġma ke
Ġor chestre
Ġg ir
ĠCop enh
Ġrecher cher
Ġmorte l
ĠmÃ¢ les
Ġban k
Ġconcern Ã©
ĠBro ad
Ġquit tent
ĠIni ti
mÃ©di aires
ĠCat al
Ġclin iques
ĠCast ro
Ġp ans
Ġju d
Ġcauche mar
N or
uc ks
Ġcop ain
ĠMin nesota
Ã©val uer
ar tif
ĠMus eum
ĠLÃ©v is
b ou
ĠV alley
ĠT ap
ĠrÃ© elles
Ġrach etÃ©
Ġpasse port
it anie
ĠÃ©gyp tienne
A ustral
Ġl l
ag Ã©naire
oule t
Ġdomin ante
ĠstratÃ©g ies
Ġti reur
Ġcommen Ã§ait
Ġest hÃ©tique
erre ment
20 19
UE FA
inform atique
Ġgagn ants
ĠCo ok
Ġchauff age
Ġreprod uire
Ġple ins
Ġf umer
Ġnot able
Ġinv itÃ©e
i os
Ġacc usÃ©e
Ġsuper vis
ri m
ĠmÃ©di a
vi o
Ġpart y
Ġconv ic
Ġchap ite
Ġdiscip lines
Ġim min
ĠprÃ©ju dice
Ġop us
Ġriv es
ĠHug h
Ġpartis an
c omm
Ġ18 48
ĠCons t
ĠDeuts che
Ġp Ã¨s
ĠPi et
Ġcon quis
ĠentraÃ® nant
Ġliqu id
Ġ10 1
ĠSe attle
Ġtrouv Ã©s
ĠD ut
ĠBe y
ah a
ĠSÃ©l estat
ĠM ount
ĠJ r
om ination
Ġus ages
tr ages
ĠRÃ©s eau
Ð¾ Ð
Ġcap ture
Ġspiritu el
Ġmar ie
an Ã§ant
enti al
Ġam er
Ġrevendi quÃ©
ĠM anche
ĠM ira
Ġconf ection
as que
Ġsign atures
Ġvis ait
Ġinstall ation
ĠrÃ©flex ions
E quipe
Ġs ure
Ġbag arre
ĠÃ©cras Ã©
Ã©ros itÃ©
ĠS U
Ġsu ch
Ġaudi ences
Ġbat ailles
Ġrich esses
ĠrÃ© acteurs
ĠPar adis
Ġvari Ã©tÃ©s
Ġlinguis tique
ĠTrois iÃ¨me
ĠspÃ©ci alitÃ©
r au
rÃ©g ation
Ġpos ent
Ġconv iv
Ġidentif iÃ©s
Ġimport ations
Ġenvironnement ale
ĠÃī mile
Ġcont es
ch y
og a
ĠM ail
ĠG ram
Ġatt ribue
Ġbec ause
ĠRe yn
Ġm ienne
Ġmobil ier
ol in
app robation
eur opÃ©
ĠM aine
Ġfournisse ur
Ġcommiss aires
ten dez
Ġsenti er
Ġsugg Ã©rÃ©
ĠcomplÃ©ment aire
I F
ĠRet r
ĠDet roit
Ġdev enait
Ġimp lication
li b
ĠY am
Ġhabitu Ã©s
othÃ©rap ie
S ch
ug u
ĠBud apest
fil m
Ġtransform Ã©e
onn aise
Ġ0 2
ati ne
inter net
Ġregarde z
mÃ© trage
ĠB and
Ġcor romp
Ġimp acts
ari ats
ĠS G
Ġl uy
an er
Ġess ence
ĠRousse au
Ġprod uis
f Ã¨res
m outh
ĠF A
ten ham
ĠJe re
ĠcÃ©rÃ©m onies
Ġmain tenance
Ġprot estation
Ġviol entes
Ġ190 4
Ġrel ate
Ġconver sion
Ġchev ille
Ġpl as
im mÃ©di
ĠgÃ©n ocide
ĠÃ©b ran
Ġmy the
g ies
Ġdou bles
T Q
Ġbr ise
ĠPen gu
ĠgÃ©n Ã©rer
Ġo h
ĠBoul ogne
Ġchag rin
Ġinf lation
ES P
ĠPr ends
ot as
Ġregard ait
Ġannonc Ã©es
ĠBon aparte
Ġdivis Ã©e
ĠBerg er
Ġtour istiques
ĠT ob
tin ct
Ġins crire
Ġajout a
Ġchamp agne
Ġposs Ã©der
ti endra
ĠF aso
Ã©r ants
mont re
ill Ã©es
Ġges tionnaire
az ar
Ġplais ant
ott o
Ġmine ures
Ġfich iers
ĠCons ervatoire
ĠCri mÃ©e
Ġrend it
tr as
tin ction
Ġquar ter
Ġrec ent
ĠM Ã©tÃ©
ĠOb s
ĠS olid
ĠP alestine
an tic
ĠdÃ©c ap
inqui Ã©ter
az a
Ġju gent
ar die
B F
car b
ĠAtt ends
Ġbr Ã¨ve
lig ht
Ġchasse ur
Don ald
Ġf und
S L
Ġsou lÃ¨ve
Ġent housiasme
ĠrÃ©comp ensÃ©
ond er
ĠpÃ©n al
Ġ18 60
apprÃ© cie
Ã©re mment
ĠvÃ©l os
az ine
Ġrenfor cÃ©e
p ol
D ieu
anth rop
Ġsouff rant
ch el
Ġcas h
ĠSuz anne
ve re
Ã©ri en
Ġparcour ir
Ã ¸
Ġto iles
Ġfai b
Ġent rÃ©s
mont on
Ġpron os
Åĵ ux
Ġ189 0
Ġajout Ã©e
ĠtÃ©lÃ©c oms
ĠSÃ© oul
ins ertion
Ġpass ager
Ġb Ãª
Ġhum or
Ġch ars
Ã« lle
ĠCit roÃ«n
s al
ad en
ĠBe at
Ġlicenci ement
ĠI stanbul
Ġaud aci
ĠDiff icile
c li
ĠÃ©l an
Ġsol licitÃ©
ĠHass an
Ġm oine
Ġord onne
ĠRo ad
ĠH aguenau
Ġass istance
lÃ© chi
av res
ĠSot chi
arde au
Ġla cs
Ġpri Ã¨res
Ġoppos Ã©e
ĠMat ch
if s
Ġcons entement
Ġlib rairie
ĠP on
ĠR ail
Ġoff ensi
att endu
Ġcommerci alisation
Ġtra fi
Ġman oeuvre
ĠprÃ©v enus
k ets
Ġconserv atrice
esp Ã©rance
accal aurÃ©at
Ġsur g
Ġma f
Ġp ower
ĠParis iens
ĠR w
implant ation
ut o
Ġtr u
ĠLa us
ĠlÃ©gisl atif
Ġdu t
tinÃ©r aire
Ġgout te
Ġvois ines
ĠWh it
ari tions
identif ication
tin c
ĠB oud
oy d
Ġcom ique
Ġbrill ante
Ġsympath isants
Amer ican
exp ulsion
ĠMont re
Ġreconstr uire
Ġb alis
Ġjihad istes
ĠdÃ©mar re
oc tr
ĠCopenh ague
Ã¨ nera
urg ie
ĠA be
Ġdom ic
Ġw in
h enti
ĠG or
ĠPr usse
ox yde
Ġemploy eur
ĠgÃ©n Ã©rositÃ©
ĠâĢ ¢
Ġn igÃ©ri
ĠD in
Ġcoll ines
ĠStock holm
ĠÃ©crit es
Ġpil ier
Ġd rones
Ġgran dir
ĠSatur day
Ġfond er
Ġsyn drome
Ġpanne au
Ġse e
h is
vi ol
ĠJ essi
not amment
Ġal pin
Ġp it
Ġmassi vement
tis es
ĠStra uss
Ġregret tÃ©
ir Ã©
Ġex tÃ©rieurs
Ġvoisin age
inves tissements
Ġs occer
ĠA ct
v ang
opÃ© rer
ĠMc K
M al
Ġstat u
Ġnour rit
Ġgraph ique
ente z
Ġl its
ĠprÃ©c ises
ung le
Ġindi quer
Ġdev ancÃ©
Ġtend resse
Ġrenf orts
imp osition
ĠJ a
ĠrÃ©serv oir
Ġexp lo
st om
Ġti b
Ġvole urs
Ġil l
Ġins ou
orti um
at urÃ©
ĠdÃ© ment
Ġcons Ã©cutif
P ort
ĠAl ouettes
en o
ĠS icile
Ġven deur
ĠdÃ©tail lÃ©
Ġsyn onyme
Ġprofit ent
Ġcommunaut aires
Ġpatrou ille
ĠFran z
rie f
Ġly onnais
attend ais
Ġpl astiques
Ã©tu dier
op Ã©e
ĠManh attan
ĠV ig
v it
techn ique
Ġparois ses
Ġla ver
Ġex ister
Ġins pec
ĠM ouss
ĠdÃ©mission ne
Ġprogressi ve
ĠG usta
ats on
obs cur
Ġin sectes
ok a
ĠS anche
Ġpl aindre
s o
Ġrenv oyer
Ġoise au
Ġabou tir
C C
ĠL oin
ĠÃ©ch angÃ©
Ġcrois Ã©
ĠHamb ourg
Ġjuge ant
ĠPro jet
Ġma Ã¯s
Ġtourn ent
Ġb in
Ġrele vant
Ġcirconst ance
Ġautor ise
ĠE p
aille ment
ĠMe def
Ġcab ine
Ġadjoin te
Ġappl aud
Ġpolitique ment
Ġcas ting
Ġtiss us
imag iner
ist s
alifor n
Ġtou chent
Ġb ol
au tel
Ġpar ap
cie uses
ĠS at
Ã©n i
Ġex tÃ©rieures
ĠCru z
ĠRep ublic
amen er
ĠcrÃ© Ã©es
ĠJ es
Ġson de
im mer
ĠNÃ©er landais
Ġch and
p end
Ġc reux
k ed
Ġquotidien nement
Ġo per
Ġju me
Or chestre
Ġmari ages
Ġfl ash
Ġref lÃ¨te
Ã© o
Ġrecev ra
Ġl ar
Ġb asses
ĠFourn ier
Ġ3 60
ĠCh antal
ĠJ une
ĠlÃ©g endaire
os hi
Ġrot ation
uti litÃ©
ĠsuÃ©d oise
Ġinter dits
ĠapprÃ© cier
exp rime
Ġbord ure
champ ion
Ġpour rai
Ġcom e
emp arer
Ġreb aptis
Ġb ars
Ġcollec tifs
ĠK it
Ġvis ionn
en sions
Ġoccup ants
Ġarriv Ã©es
ĠlÃ©gisl ative
ĠcrÃ© ature
os sible
ar bres
ĠO d
ĠN Ã®mes
ĠH ell
ĠH istoire
Ġfes tivitÃ©s
qu ins
Ġm entir
Ġcomb in
Ġcollec tivitÃ©
Ġt arg
ĠL ions
ĠMich Ã¨le
ĠreprÃ©sent Ã©s
ong o
n els
Ġh Ã©
Ġn uis
D u
o ver
ĠdÃ©cern Ã©
ĠMe mbre
ĠJuli ette
Ġfre in
ĠÃ©v Ã¨nements
Ġdiscip lin
Ġasi atiques
Ġexp ertise
Ġto xic
ĠP f
Ġprop uls
Ġinqui ets
Nic olas
ĠP ablo
, .
Ġt olÃ©rance
Ġreven ait
ci le
Ġn aufrage
ĠaÃ©ri ens
ĠconsÃ©c utives
ionn ette
Ġdan ois
ĠPar ty
Ġcontr aste
ĠAndre a
w ig
ĠCh rys
ĠR as
D em
ĠJ erry
export ation
Ġaffich es
Ġt amb
Ġesp Ã©rait
ĠOu elle
ĠCar r
pr Ã©f
Ġcompatri otes
ĠBar ry
Ġrecru tÃ©
Ã©t an
ouv ert
Ġmultip lication
ac a
Ġc ouverte
ch ang
Ġvrai es
Ġredout able
Ġbre vet
Ġautonom es
ĠH istor
Ġs aints
Ġcontre partie
uction s
ĠprÃ©f Ã©rer
m ore
Ġple ure
ĠN u
Ġimpos Ã©es
ĠarrÃªtÃ© es
ĠMel bourne
ĠH and
mi re
ĠJ up
Ġval ait
d ra
Ġtransp orte
Ġdistribu Ã©
Ġorthod oxe
ĠRÃ©s erve
Ġt ang
ĠD ort
ĠB D
ĠdÃ©m ographique
aim ais
ĠE U
ĠprivilÃ©g iÃ©
ĠrÃ©guli ers
Ġad olescent
ms tr
Ġf ell
Ġw ell
Ġaffect Ã©s
ĠG end
ing ues
ĠAD N
ĠMah m
Ġchristian isme
Ġdoul oureux
ĠJourn Ã©e
tÃ©r ise
Ġl ant
Ġz o
Ġservi ra
Ġatt rac
Ġsent ais
Ġloy ers
Ġm utation
im on
Ġenregistre ments
ith Ã©Ã¢tre
Ġadress Ã©e
Ġinvestig ations
Ġprivil Ã¨ge
Ġhe ad
Ġfac iles
ĠBay rou
Ġbl onde
Ġurb ains
Ġdange reuses
ĠVik tor
Ġs ain
uset ts
" ".
Ġc aliforn
form itÃ©
Ġense ignement
Ġsent ence
Ġplong er
Ġcla use
ĠprÃ©d it
ĠZur ich
ĠF ri
tr al
ĠBav iÃ¨re
il at
enn etÃ©
ach usetts
ow a
Ġfavor ise
ĠNet anyah
Ġlim it
ĠÃ©v olutions
Ġvalor isation
arbit rage
Ġvend ues
ĠÃīc outez
Ġinc iter
Ġson ne
en i
ic ule
Ġsucc omb
Ġaustral ienne
Ã©le ver
Ġch allenge
Ġloc ataires
Ġbag ages
Ġret ards
Ġarchite ctes
c rivant
ĠE uh
intÃ©gr itÃ©
Å Ħ
ĠrÃ©ve il
x ford
ĠB Ã©r
ess ay
ĠdÃ© ri
ĠrÃ©col ter
Ġg au
Ġap ost
or ama
b n
Ġal cool
Ġcarac tÃ©rise
Ġcommun ale
Ġdistribu teur
im i
Ġc Ã©ra
D Ãī
ĠK as
Ġfabri quÃ©
Ġsimultan Ã©ment
ĠT ro
Ġcomp are
Ġ190 3
Ġjou Ã©e
l os
Ġcit ad
ĠmÃ©t aux
ĠAu di
ĠsÃ©par Ã©
Ġoct roy
ber ge
ĠdÃ©faut s
cher che
ĠÃ©chÃ© ance
ĠrÃ©p erc
ens is
ĠchorÃ©g raph
ins pecteur
ĠBomb ardier
ĠT iens
ĠDam ien
op tion
Ġder by
Ġr ater
ĠlaurÃ© at
Ġparcour u
ĠPro b
ygi Ã¨ne
ĠInf os
Ġidi ot
g ang
acc Ã©l
Ġbe ing
te m
od rome
Ġarriver a
Ġsil hou
p Ã©
Olymp ique
Ġh ip
Ġpro jections
Ġlaiss Ã©s
Ġinstruction s
Ġcon tiennent
Ġn uire
Ġex terne
Ġex acte
ĠMul ler
inter romp
ve illÃ©
Ġin former
ĠPAR IS
Ġch antÃ©
Ġimag in
Ġfoss Ã©
M ex
harm onie
Ġf ric
Ġinc ur
ĠdÃ©p our
ĠdÃ©cal age
ĠW it
tit le
ĠS Q
Ġconne xion
Ġdirect s
ER S
Ġexploit ation
pl ay
Ġproduc tivitÃ©
ĠHe bdo
ĠConstantin ople
Ġprononc Ã©e
encad rement
aine d
ĠV illage
ur iers
lig a
ĠdÃ©mocra tiques
Ã©conom ies
ĠB eth
ĠapprÃ© h
Ġni Ã©
Ġromp u
Ġconfort able
Ġsenti ers
ans on
ĠFre der
Ġhab itations
Ġaffir mer
r or
Ġreb on
ĠR E
V ille
ĠBerg eron
Ġjou es
Ġcertif icat
Ġdimin ue
Ġh onneurs
Ġsur plus
ĠPenn sy
Ġman y
Ġsusp end
ĠS ale
Ġnoct urne
Ġchor ale
Ġenregist rÃ©es
li es
Ġressembl ent
ĠL og
Ġv Åĵux
ĠsÃ©lection nÃ©s
ĠJ i
Ġsin istre
ĠExp ress
onn erie
Ġpromo teurs
ĠGr ant
Ġsensibil isation
Ġa ille
ĠN ou
ĠdÃ©clar Ã©e
ob ert
ĠA S
ĠG our
Ġhu mide
Ġinaccept able
ĠP ie
Ġannonc Ã©s
ĠmÃ©r itÃ©
C o
Ġrep orting
Ã©loign er
Ã©ti t
Ġre part
Ġdis aient
ĠI gn
Ġvo eux
Ġpne um
fi ance
Ġmerc ato
ĠdÃ©cid Ã©e
ĠrÃ©t ro
Ġ ist
Ġexpri me
Ġcre user
Ġtou l
Ġb rand
se igneur
Ġcens Ã©e
aill ants
ĠdÃ©b rou
er i
qu age
Ġ" ...
Ġautrich ien
inter roger
ĠAss oci
st a
Ġrand onnÃ©e
p ing
Ġloc alement
Ġhomosex uels
ĠRe v
Ġhum ili
c it
ĠdÃ©mar rÃ©
ar isme
ĠdÃ©b lo
Ġchar itÃ©
Ġhabitu el
ĠrÃ© acteur
Ġbl ues
ĠVin ci
ĠN orm
Ġcigare tte
ĠrÃ© veille
ab at
ĠN ote
ĠcÃ¢ ble
ĠÃ©qu iv
ĠrÃ©glement aire
ĠK yle
ai g
ĠrÃ©c rÃ©
ĠCamb ridge
ille z
ĠsupÃ©ri oritÃ©
Ġfinanci Ã¨rement
ag isse
ĠMar t
Ġrest aurer
inc ar
Ġtechni ciens
Ġcad avres
Ġser pent
ĠOff ici
ĠdÃ©p enser
Ġ18 00
Ġru ine
ĠÃ©di fices
ĠB arth
ĠvÃ©tÃ© rans
t ais
h of
ĠJe une
ĠÃ©te int
Ġinc er
Ġhau teurs
Ġan gle
d roit
ĠN oirs
Ġam ant
Ġatte intes
Ġin verse
200 7
Ã©t oile
Ġinter mÃ©diaires
Ġenn uy
ĠPengu ins
Ġfati guÃ©
oli Ã¨re
Ġgalax ie
Y ork
Ġmont ants
Ġbl ogue
Ġcou ler
ĠC L
Ġch Ã©ri
ĠH il
Ġopportun itÃ©s
Ġbou e
Ġconfront Ã©s
Ġr Ã´
Ġdesc endant
Ġimm igrants
Ġf ollow
Ġoffici als
ĠisraÃ©li ens
hÃ©roÃ¯ ne
ĠT own
Ġdans eurs
Ã©n itÃ©
Ġsauve garde
app rÃªt
ĠC ercle
Ġr oc
Ġjourn alisme
ĠflÃ¨ che
Ġcons tant
Ġaut obus
ĠB ard
s tr
ĠAm y
Ġfur ieux
ĠdÃ©s agrÃ©
ĠW atson
ĠÃ© rig
indi que
c onc
b ro
US M
Ġty ran
ĠR oux
ĠtÃ©lÃ©ch arge
ĠV ent
Ġprol ongement
Ġsouff rances
ĠAr mand
ĠHar am
Ġcondam ne
v ette
Ġ' .
ĠD aily
oli a
Ġex Ã©cution
Ġgrand it
Ġnot ation
ĠS E
ĠJessi ca
Ġgr aines
ĠDub ois
Ġen tit
Ġ4 000
Ġet h
ĠTe le
Ġdisp utÃ©e
ĠreÃ§ ues
ĠprÃ©lÃ¨ve ments
â Ģ
Ġdis ons
Ġpublic itÃ©s
Ġp esti
L ac
terr oriste
ĠW ang
ĠÃ©qu itable
ĠG om
uti lise
Ġnomin ations
ĠDub lin
Ġimp rime
ĠMich igan
en vergure
Ġa ust
am ant
Ġbra ve
Ġinqui Ã©t
ph al
Ġadministra teur
Ġsusp ense
ette z
ĠM end
roch Ã©e
ĠP Ã©ri
ĠdÃ©plac Ã©
ĠgÃª ne
Ġcommand er
ex ercer
Ġcompt abil
Ġcons enti
ĠJohan nes
ĠLaus anne
Ġd ro
Ġlanc Ã©es
Ġcon ventions
ĠÃ© vite
Ġcompos ent
Ġtend ue
ĠMot ors
Ġ17 89
Ġref ait
z el
Ġessay e
ĠO il
ĠcÃ©lÃ©b rÃ©
app uyant
Ġray onnement
Ġach ar
Ġtre mblement
v alle
u or
ĠH ors
Ġul tÃ©rieure
Ġconsac rÃ©s
Ġsoi f
ĠÅ Ĵuvres
u de
Ġun anime
Ġnaz is
Ġpl aire
ĠrÃ©alis ateurs
ĠrÃ©tab lissement
Ġfin es
c ale
Ã©r atrice
Ġme urent
Ġas se
Ġrec ourir
Ġment al
ĠprÃ©c oce
Ġ190 2
Ġpersu adÃ©
Ġesti mation
Ġsuppri mÃ©
Ġaff ection
Ġbasil ique
Ġukrain ienne
Ġexige ant
Ġent rant
Ġremont ent
ĠPro c
ĠP ense
Ġoff erte
Ġbanc s
Ġmexic ain
Ġadministra tivement
audi Ã¨re
Ġgliss er
Ġsyndic al
ĠtÃ©lÃ©commun ications
ĠI ra
man i
Ġtick et
ĠL ars
Ġarr estations
ĠD oh
ĠsÃ© journ
Ġg aul
Ġhuman itaires
ĠB udget
Ġg ood
Ġsup ers
Ġdessin ateur
t ers
Ġlaiss a
Ã© puis
adi a
ĠP riv
Ġfondament al
b ie
Ġlanc ent
aill ard
Ġs illage
Ġmilit ante
Ġarr ond
Ġtable tte
Ã©p Ã©e
ĠdÃ©ce v
Ġconsid Ã©rÃ©es
Ġexpri mÃ©s
ĠhÃ´ tes
Ġdes se
Ġexp ress
Albert a
ĠÃ© lire
Ġratta chÃ©e
Ġsoule vÃ©
ille ux
Ġpr ai
Ã©v asion
Ġdev enues
ĠBun des
Ġsph Ã¨re
Ġtest ament
Ġsh ould
ĠB oko
ch im
M ad
ĠOli ver
Ã©l us
ĠÃ©cl ai
ĠdÃ©s ordre
Ã© die
Ġav ois
O range
Ġpres tige
Ġcap s
ĠI f
ct rice
Ġhor aire
cul ture
Ãīl ysÃ©e
ĠWar ner
journ Ã©e
Ġtit ulaires
Ġf osse
ouv elle
Ã´ te
Ġb ir
Ġcommence ment
Ġdistribu teurs
ĠLe a
Ġoub lie
Ġun es
av y
Ġsoci o
Ġtran cher
Ġcontra dict
ĠdÃ©rou lement
ĠRodrig uez
Ġparad ox
ĠrÃ© agit
ĠPoli tique
ĠdÃ©missionn Ã©
au er
Ġprior itaire
ĠÃ© ro
ri enne
Ġminor itÃ©s
Ġrem or
Ġfont aine
Ġvit esses
ĠK ore
ĠcrÃ© ativitÃ©
Ġapp aritions
Ġdirec tive
Ġsurpr en
Ġprolong Ã©e
ĠrÃ©v Ã¨lent
en ger
ĠPuis que
ĠdÃ©mÃ©n age
ĠÃ©ch ang
f ried
Ġr aci
ous t
Ġconvic tions
Ġn aiss
Ġchirurg ien
i tif
ac Ã©es
Ġsympath ique
ĠB uck
intÃ© resser
ĠtÃ©lÃ©ph oniques
Ġag ran
Ġsac re
emp ort
ĠBe aux
Ġestiv ale
Ġb apt
Ġreven ant
Ġcl aires
Ġrad ar
app rocher
Ġconstruit es
ĠenchaÃ® nÃ©
ĠÃ©cou tÃ©
ru g
Ġconc rÃ¨tes
Ġradic aux
ĠcoÃ»te ux
ĠÃ© checs
ĠCar aÃ¯
om on
ĠJac quel
Ġpl Ã©n
emb auche
Ġex pected
Ġcrois iÃ¨re
ĠÃ©chantill ons
pp i
Ġmont rait
ĠG amb
Ġemp ire
g ard
ĠPortug ais
Ġf Ã©
Ġab orde
ĠC ardin
Ġinflu encÃ©
ĠdÃ©pl oyÃ©
ĠÃ ĥ
ĠdÃ©cid a
Ġob tenue
Ġtyp ique
ci Ã¨res
ag Ã¨re
ĠP uy
Ġar mÃ©n
ĠtraÃ® ne
mb a
Ġreg ion
ĠT emp
Ġprosp Ã©ritÃ©
la us
ĠFern and
i ait
lis sements
ĠcrÃ©di ble
Ġmet al
au ve
ĠL iga
o ches
ĠprotÃ© ines
ĠpÃ©nit enti
ce mbre
er ia
Ġsensibil iser
ĠW ars
n elles
Ġaffir mait
Ġvoy ais
ĠInd ustri
Ġdur ing
ĠlycÃ© ens
ĠdÃ© tra
ĠS car
ang a
g ation
Ġrep Ã©rÃ©
ĠSc ot
Ġf iers
Ġf rot
Ġpr ices
ĠVos ges
Ġrep ortÃ©
Ã©cl at
ĠW es
inn oc
ĠNov ak
ab ond
ore t
on ic
Ġaccomp lir
Ġb accalaurÃ©at
Ġprotest ante
Ġcar net
ĠM ets
Ġsouhait ant
enci eux
Ġsensi blement
Ġattribu Ã©e
ĠNav y
Ġoccident ales
ĠJ er
Ġconsid Ã©rables
ille d
ĠdÃ©b ours
ĠamÃ©li orÃ©
N S
N euve
ĠSanti ago
Ġatteign ant
ĠQue en
un ir
Ġal lÃ¨
Ġbar riÃ¨res
Ġst atement
Ġcombatt ant
oph ile
ĠM ong
ĠR ah
Ġbor nes
ĠM ak
ĠAn im
Ġdi ctionn
ĠSt ars
ĠF ant
env elopp
Ġdesqu els
Ġress ource
ĠcontrÃ´ lÃ©e
Ġcach Ã©e
Ġcar refour
D D
Ġvisi teur
Ġdis si
Ġgal eries
ĠmontrÃ©al aise
ĠS ak
ĠH ale
Ġinstall Ã©es
Ġenregistre r
ĠB oss
Ġde cl
ĠCol in
Ġpo ches
Ġsi Ã©g
ĠMÃ©tÃ© o
ĠM ission
ĠdÃ©tr uits
Ġcontro vers
ĠP Ã©n
ĠStef an
Ġf ibre
oeu vres
ti ment
ĠR is
ĠdÃ©clen cher
Ġarchite cture
ĠdÃ©tec ter
ĠTib et
Ġsign ataires
g ins
Ġinter min
ĠPan ama
omp son
imp ulsion
arg ument
Ġcop ies
Ġsl alom
ani um
oise aux
Ġp ence
ĠU s
Ã© rez
ĠH off
Ġdev rions
Ġgr ain
Ġinterromp u
ĠJ C
Ġexp ansion
Ġrecomm encer
un ier
Ġsusc iter
Ġmar ti
Ġsoulign ent
ĠrÃ©s erver
Ġexerc Ã©
app ropri
ĠgÃ©n Ã©rique
ĠsÃ©v Ã¨res
Ġqu otas
Ġdou che
ĠdÃ©termin Ã©e
Ġatt est
Ġdiver tissement
Ġgrow th
ĠdÃ©fic its
ĠLe h
Ġimpos ant
Ġe ven
Ġ11 5
ĠsÃ©rie uses
b io
f ais
Ġfor cÃ©e
Ġfil er
ĠAr ticle
am as
Ġexam inÃ©
Ġ20 30
ĠSta dium
re k
Ġproduit es
ro ck
c isme
Ġcomp tÃ©
yd ay
Ġrev int
Ġmultip lier
ĠS ong
Ġco hÃ©r
Ġtent ant
ĠcÃ©rÃ©b rale
ex il
ĠWood s
Ġgarn ison
Ġp ince
Ġv ierge
ĠL ance
Ġconjoin tement
Ġtub es
ĠM em
ic aux
ĠdÃ©partement ales
me z
ol an
Ġst ades
Ġaccord ing
ĠBus iness
ĠW arren
Ġat mosphÃ¨re
n ergie
Ġexcell ence
Ã¨ ner
Ġpolyval ente
ĠÃ©quipe ment
Ġfinance ments
Ġentre p
ĠrÃ©s ol
P ro
Ġar ound
c il
ophob ie
ĠSt ation
escl avage
Ġs obre
ĠChristi ane
ĠAl t
ĠS z
ab re
ĠJÃ©r Ã©my
P L
ok es
Ġral lier
rais ons
Ġcamar ade
Ġraid s
Ã© ditions
ĠWe ek
Ġordin aires
ĠM Ã©m
ĠF ire
ĠChe min
Ġbruxell ois
ĠFl orian
Ġchang es
l Ã¨s
Ġlog iquement
Ġport aient
Ġentend ue
Mari times
ar ak
Ġprotagon istes
Ġretomb Ã©es
ĠÃ©cl aire
Ġad hÃ©rents
ĠEmp ire
ĠE gypte
ĠR Ã©my
B M
ĠL aure
Â ©
ain ville
id Ã©s
ĠOs cars
Ġseigneur ie
Ġinc re
Ġbaiss es
Ġcom itÃ©s
ĠEb ola
ĠDy lan
ĠAn cien
ĠFab ien
Ġad ore
ĠMin ister
ĠrÃ©volu tionnaires
ĠAn kara
Ġchron iques
Ã¯ t
ĠdÃ©ch arge
p age
est on
Ġexpos Ã©es
ĠspÃ©ci fiquement
di x
Ġappuy er
ĠEn semble
jus qu
Ġn ue
in igan
Ã©tab lit
ĠTot tenham
ĠWe ber
ĠâĤ¬ ,
am el
ĠSanche z
ĠrÃ© former
gÃ©n Ã©ral
Ġresp irer
ĠdÃ©g agÃ©
mi te
Ġfich ier
Ġf usÃ©e
ĠCom mand
Ġchron o
Ġinjus te
Ġabord er
Ġaltern atives
Ġsal ons
exc user
ĠMatt hieu
Ġess entiels
oc le
id en
Ġp ile
ĠDe f
ĠSask atchewan
Ġsigni fier
ĠGre y
c rÃ©
enf uir
amp ton
ĠD ax
k ers
ĠJ apan
pe tit
Ġcar c
Ġpseud onyme
Ġannon Ã§ait
Ġm ate
au mes
Ġvo Ã»te
Ġd og
Ġrob es
Ġhom ologues
oul x
R I
Ġmusic aux
ĠrÃ©vÃ©l Ã©e
Ġloc ataire
Ġf assent
lv anie
ĠMe dia
ĠM ack
Ġmilit ary
Ġcandidat ures
ist ait
Ġn us
Ġjoy eux
Ġmar ais
ĠLor ient
Ġparticip era
ĠMal aisie
ĠN ash
Ġrep orte
Ġsour iant
Ġpo Ã¨tes
Ã©cu les
ĠBrab ant
ĠO tt
Ġcor rect
Ġc ue
Ġsens ations
omb erg
p ied
Ġr ing
Ã©d o
ĠCon sid
ĠMad uro
ar ien
Ġpl ates
Ġanalys er
ĠLim oges
B ois
Ġf ive
Ġsigni fication
ap it
is ait
ĠD aw
ĠB ientÃ´t
b ag
ĠdÃ©m on
Ġgra d
Ġ10 5
Ġfl an
Ġstand ards
Ã©l or
Ġconsid Ã©rant
ĠmÃ©di oc
Ġin temp
Ġt ricolore
I r
ĠH Ã´
ĠdÃ©c oll
Ġress entir
Ġcons ultÃ©
our agan
en lÃ¨vement
Ġdjihad iste
Ġh Ã¢
Ġmena Ã§ant
atis Ã©
Ġmanuscrit s
ĠC ob
ĠcÃ©rÃ© ales
Ġdist ribuer
Ġral li
Ġim mer
u per
ĠH ot
Ġentit Ã©s
ĠmÃ©cont entement
Ġh app
at ra
ense ignements
est r
Ġnat ation
cul aires
ent on
exp li
v il
Ġsh ort
ĠÃī lisabeth
Ġpouss ent
ĠÃ©p onyme
Ġmarte lÃ©
uti le
ĠJ ake
ser vice
Ġfront al
ĠDort mund
em ment
ĠÃ©chantill on
ĠT est
Ġde c
ĠBelg rade
Ġmod Ã©rÃ©
Ġti rÃ©e
ĠWay ne
ĠE lisabeth
Ġpar ie
z yn
ĠS MS
Ġi Phone
ĠrÃ©p Ã©ti
ver a
Ġd ense
Ġfem elles
ou chement
ci tement
cl air
ĠCrai g
ĠV ettel
Ġrou nd
Ġver res
ĠMari anne
er me
Gar onne
ex am
Ġempre intes
Ġdire ctions
end ettement
ĠP age
Ġexig Ã©
ĠBen z
Ġremplac Ã©s
ĠD ig
tig m
Ġboul anger
ile t
Ġ2 20
Ġmanif estement
ĠLu cie
IS E
ĠV rai
Ġchar mant
pe z
Ġbois son
ĠC ologne
ĠR an
Ġcondam ner
ĠL ieu
ar ma
Ġstopp er
un te
ĠD own
ĠMar chÃ©
ĠW ith
Ġcro Ã®tre
Ġimm un
ĠArriv Ã©
ode ur
Ġdiv ise
ĠF ur
Ġprot otype
hen tique
ĠXVII e
Ġregret ter
fon ction
h onn
Ġbi ographie
Ġd in
ĠR N
Ġdor Ã©navant
ĠP ors
Ġmart yr
Ġ189 8
ĠPro che
Ġdispos ant
ĠMac Ã©d
ĠdÃ©m ons
Ġr ails
Ġni pp
ĠLaw rence
k l
Ġatta quants
Ġattend ues
Î µ
ĠÃ©p iscop
at en
ic on
ĠJere my
jon ction
Mex ique
H y
or ia
ob lige
Ġqualif ic
Ġ188 9
Ġcoh Ã©rence
Ġcas erne
ĠJo Ã«l
ĠgoÃ» ts
Ġsurmont er
ar chÃ©
Ġ osÃ©
ĠdÃ©cis ives
exp ri
Ġar chevÃªque
Ġals a
Ġcrois Ã©s
b u
b vre
ĠGusta ve
tin i
ĠCA Q
ĠdÃ©m oli
ol ent
ĠC V
Ġcell ulaire
Ġsort ait
Ġtomb eau
Ġvert es
ach a
dition al
Ġnav ette
ĠPoi tiers
Ġaver tissement
tis se
Ġgr ise
Ġobserv Ã©e
mstr ong
ĠEr n
ĠGra ce
Ġesti mait
Ġadministra tifs
ud es
ĠB rent
8 00
Ġremp lie
in ne
Ġan ime
ain g
Ġper cÃ©e
Ġw ay
Ġrep rocher
ret our
Ġeconom y
ĠpiÃ©t ons
ĠWi ki
Ġouv riÃ¨re
ĠM ec
ĠrÃ©cup Ã¨re
Ġfix Ã©s
ĠR ig
Ġbrusque ment
Ġs qu
ag ues
Ġ187 1
Ġappel ait
Ġemprun ter
Ġag gra
ĠnÃ©g atifs
Ġrejoign ent
ad an
Ġdess er
ĠChampions hip
ĠBien venue
Ġmu ch
Ġau dit
Ġm id
Ġr ange
Ġacqu iert
W A
Ġcous ine
Ã©clair age
Ġmens onges
all ait
ĠAng ers
habit at
Ã© pr
ĠfÃ©min iste
Ġcompli ces
ĠfrÃ©quent Ã©
Ġvic om
ĠdÃ©riv Ã©s
Ġentre tenu
ĠrÃ©un issant
od uc
Ġcour u
Ġsympath ie
Ġo deur
ĠProg ramme
ĠI v
Ġconqu Ã©rir
Ġli aisons
Ġj uniors
Ġcor rid
ĠrÃ© organisation
Ã©cu tifs
r onne
Ġrou tiers
Al ger
Ġdu rement
' re
er ge
ouss es
Ġvole ur
ĠMarc us
s ky
Ġsubst anti
ĠT omas
Ġfond ations
Ġass urÃ©s
rav o
Ġpour rions
Ġva ches
Ġsyndic ales
ĠmÃ©di ation
ĠbÃ¢ t
Ġtax is
Ġincont est
vi endra
Ġurg ent
ĠImp ossible
rie urs
akes pe
Ed ucation
ĠG ay
Ġcomp as
ĠB urg
Ġte int
ĠdÃ© ter
ĠcrÃ© atures
ĠC AN
ĠS uez
ĠLa ch
ĠrÃ©cip ro
ĠM Ã¨re
Ġital iennes
Ġtre mbl
cad re
Ġl umineux
ĠmÃ©tÃ©or ologiques
Ġat omique
ess ais
onn u
Ġj urÃ©
vi de
ĠÃ©lab orÃ©
ins pir
Ġat out
Ġaur iez
Ġf ume
Ġj oign
F or
appar ence
Ġsex ualitÃ©
ĠS FR
S p
ĠC SA
ĠH ez
Ġpalestin ienne
ĠMe illeur
Ġcon grÃ©
Ġkid n
Ġintellig ente
ĠIn diens
no ver
oi tement
ra ble
ĠJoh ann
Ġextra ordin
S F
Ġa ile
od or
ĠBow l
Ġ12 00
ĠÃī videmment
ĠdÃ©t est
Ġs aute
ĠfraÃ® cheur
ĠÃ©ch oue
I X
ĠSier ra
Ġral entir
Ġ189 6
Ġrob ots
inst auration
p tes
Ġbat teur
tr ui
ĠE g
ĠProf esseur
Ġbien venue
S av
Ġbout on
Ġan ges
Ġbar oque
ĠU p
ĠL ig
ĠGl as
Ġriv alitÃ©
b ol
Ġfili ales
Ġscru p
Ġpalestin iens
rÃ© f
Ġinter roge
ĠÃ©m u
el ot
ĠO ld
ont aine
ĠSant os
6 00
Ġper mette
Ġrejet Ã©e
Ġr iant
ĠAt lantique
ĠF air
ed a
Ġval idÃ©
Ath Ã¨nes
ĠprÃ©cÃ©d Ã©
Ġg ants
Ġcomp teur
ĠprÃ©par ent
ĠdiscrÃ© tion
Ġre tient
ĠCod erre
ĠD rou
idal go
ĠMal te
Ã©ch anges
Ã©d itÃ©
Ġind Ã©c
ĠÃ©nor mes
ol ith
ĠdÃ©pl oyer
ĠRw anda
Ġadjoin ts
Ġconfig uration
Ġver d
Ġmam mi
Ġindiff Ã©r
u ki
ĠEnv ironnement
ĠdÃ©p ouille
ĠCamp bell
ĠW end
Ġpens ant
ĠdÃ©mar rer
ann ing
Ġb ains
ab et
Ġimp Ã´t
ĠMahm oud
u che
uc c
ĠH Ã©b
Ġpay ant
Ġinv o
vel ines
Ġcons Ã©cutifs
Ġot age
ĠR Ã©c
Ġali as
Ġinaug urÃ©e
upp ort
ĠA pr
Ġurb aines
Ġp este
Ġcan aux
ĠpÃ¨ler inage
S al
ĠMc L
p at
int o
Ġcop ains
Ã¨ bre
erg er
ĠB oli
ĠdÃ©m ant
Ġrel ati
Ġaffron te
s ant
ĠO rient
ĠM A
tin o
Ġpar ven
ĠdÃ©n omination
Ġgoth ique
h aÃ¯
ĠMitch ell
ĠSer ena
ĠquÃ©bÃ©cois es
ang s
Ġpos tÃ©
ĠO ber
Ġban quier
ĠSus an
Ġtron Ã§on
Ġrend s
ĠimpÃ©ri al
employ eur
ĠÃ©th ique
ore rie
dre y
Ġaccueill era
Ġplaisir s
ric ole
Ġl us
ĠM ots
ĠingrÃ©di ents
uss er
ĠL iz
Ġpr Ã©lÃ¨
ĠN oire
Ġinnoc ent
ar res
Ġb riques
Ġmal trait
ĠrÃ©d uits
ĠT ER
ĠCor ps
Ġpress Ã©
ĠdÃ©p ose
Ġl inÃ©
Ġsav aient
ju ana
ĠEn d
Ãī douard
bour geois
ĠDr um
ĠÃ©vo quent
Ġcr ains
ĠC ow
Ġenti tÃ©
Ġg ise
Ġadapt Ã©s
Ġmons tres
ĠÃ©ri gÃ©
Ġinf ractions
onc Ã©e
st Ã¨me
Ġplu mes
an ies
am Ã©ricains
ĠMatte o
vi Äĩ
Ġdiff Ã©remment
Ġrassemble ments
ush ima
Ġconseil lÃ©
ĠnÃ©goci Ã©
ĠLu k
ĠdÃ©fin ie
exp ert
ĠentraÃ® nements
Ġgouvernement al
Ġbiblioth Ã¨ques
er ing
ĠMÃ© dec
Pour quoi
Ġtherm ique
Ġharm onie
A ix
ĠJ ah
ĠGe off
ĠTh ompson
Ġc ure
ĠShaw inigan
Ġcamp ing
ĠCh en
ĠDe p
ĠDE FA
Ġcit y
Ġapp lic
ĠK ansas
ĠJ azz
ĠRog ers
Ġcomm ises
Ġindi rec
Ġir landaise
Ã©lÃ© ment
Ã©r ais
al tern
Ġimmobili Ã¨re
Ġretrait Ã©
ĠCh lo
Ġsol aires
Ġann uellement
Ġp endu
ond ation
ise z
Ġvoud ra
ĠV oyez
Ġpays an
ĠR asse
ĠSal ah
ĠthÃ©rap ie
ĠGar nier
Ġsoul agement
P y
Ġcour ageux
A vec
Ã©conom iste
immÃ©di at
ĠR up
Ġcont ester
ad ou
Ġdiv ine
ĠBour bon
Ġnich t
Ġplan Ã¨tes
ines e
Ġs r
Ġcontribu ent
ĠLe fe
ĠDub aÃ¯
ĠAn al
p ap
ĠR ois
Ġa Ã©ronautique
Ġsais it
affir mer
Ã©t ain
Ġnouve autÃ©s
omorph es
Ġspons or
ĠdÃ©buter a
ĠfÃ©d Ã©rations
ĠdÃ©clen chement
Ġm iti
ad j
Ġdauph in
alis ations
ĠprÃ©v enti
pec tive
m ers
ĠK lein
ĠXVI e
ĠdÃ©sir s
Ġmol Ã©cules
Ġmanip ulation
Ġti enne
ĠS ut
Ġoccup ait
ĠChamp ion
Ġth r
emmen er
ĠL ittle
Ġobs Ã¨ques
Ġparam Ã¨tres
Ġprofess eure
aff ection
Ã©ti e
Ġbre ton
ĠC iv
Ġson ner
id t
ĠvÃ©ri fication
Ġp oi
int endo
Ġprestig ieuse
ĠBrook lyn
Ġqu o
Ã©p ic
Ġreg rets
ĠJacquel ine
Ġsign Ã©s
env oie
ĠHall yday
ĠMan agement
ĠEc onom
rit es
Ġrep rochÃ©
Ġfavor ite
ĠM H
Ġpair s
Ġexist ant
ĠBal k
z ac
Ġsinc Ã¨re
ĠS quare
Ġspiritu elle
g ui
Ġf lÃ©
Ġcompar ativement
m aine
Ġm ig
Ġavoc ate
Ġtransf Ã©rer
Ġnav ale
ĠDer nier
B on
ĠlatÃ©r al
T O
ĠTh is
ĠC ou
esp Ã¨ces
ai mes
Ġimag ine
Ġflam and
Ġhypoth Ã¨ses
ĠC iti
Ġva che
Ġfact ures
Ġidenti ques
UL TS
ĠLong u
Ġc all
Ġ189 5
ĠSerg ue
Ġver rou
Ġpil otage
Ġadministr ations
ĠSi mp
Ġcor ner
tig ation
ULTS ORT
ĠH ud
ĠL ine
ill usion
ĠDEFA ULTSORT
ĠCI O
a ac
ĠP es
ĠdÃ©velopp ent
Ġfin ira
onc le
ĠgÃ© ographie
ĠrÃ©pond ant
t le
ĠLe b
Ġs id
Ġcondam n
Ġm ail
anal yste
Ġsing ulier
aliment aire
Ġtomb es
ĠLeon ard
ĠKos ovo
Ġhab its
Ġfig urer
Ġen lÃ¨ve
ĠrÃ©c on
Ġremarqu ables
Ġobserv ant
Ġcircul ent
Ġm ondes
ĠCh urch
exempl aires
Ġdu chÃ©
Ġse ct
ar lier
en er
ĠMon ique
Ġtest Ã©
Ġvot Ã©e
Ġgrec s
Ġmu et
ĠJun cker
Ġser p
Ġfac ultÃ©s
ĠprÃ©v al
ĠCanadi enne
I t
ĠbactÃ©ri es
Ġnul s
Ġparal ys
ĠPer ry
Ġb ander
ĠFor tin
Ã© ans
Ġin visible
ĠCar cass
en b
Ġqu ais
Ġrati o
ray er
Ġvirtu elle
Ġd ors
Ġth ird
Ġstatut s
ĠCaraÃ¯ bes
ach Ã¨ve
Ġinconn us
Ġcal ibre
ĠtÃ©lÃ©vis Ã©
Ġsty les
cher ie
ĠPatri cia
ĠCh ois
Ġins pecteur
Ġcrimin elles
ĠB isch
Ġappel Ã©es
ant an
Ġprim ordi
aute ure
Ġcr oss
b ollah
ung en
ĠT in
am orph
ĠÃ©quip Ã©e
Ġf esses
Ġm ut
pr endre
Ġc ran
Ġballe t
Ġimp rob
Ġom ni
p op
Ġre lier
Ã© me
Ġalb Ã©do
gu Ã©s
Ġb uil
ro si
ĠA us
Ġdess ine
ĠSalv ador
qu ateur
Ġy en
tain ment
ĠEv ans
A V
Ġth ose
ĠBang l
ĠNant erre
ĠN y
Ġrent able
ĠS arre
ĠdÃ©pass ant
Ġs ie
Ġat tÃ©n
Ġd ressÃ©
ĠMass achusetts
Ġatt rap
Ġbil at
Ġv om
ĠdÃ©c Ã¨de
ĠsÃ©r Ã©nitÃ©
Ġmultip lie
Ġby z
it ure
toi le
Ġporter a
Ġr abb
Ġtravaille ur
66 6
ĠdÃ©pos Ã©es
Ġride au
Ġlucra tif
ĠSte wart
Au de
Ġbouc lier
Ġde lÃł
Ġsignific atif
ĠH ou
Ġexp osÃ©e
Ġg rammes
ĠW agner
Ġprom ise
Ġ24 0
Ġass urances
Ġmoin dres
ĠCons ul
Ġpar ution
let t
Ġatteign ent
Ġmar itimes
Ġannonc ent
ades h
ti ano
ind er
ĠGra ham
ĠrÃ©ussi e
jord anie
Ġcompos ants
Pr ince
ĠMan it
i teur
l ore
Ġd atÃ©
ĠS ouv
ĠL H
Ġense ignes
Ġc yn
s ax
rait Ã©
Ġdo ter
ĠpÃ©r enn
Ġpatron at
ar b
ĠÃī p
Ġ189 7
Ġreconn aissent
Ġsur pl
t one
ĠA ver
Ġlac ry
ĠWal ker
impos ant
ĠS yste
aut op
Ġradi os
ĠDev ils
ĠPri me
Ã©m ont
Ar n
Ġposi tives
tif ication
Ġorigin ales
Ãī quipe
exc use
ĠMarsh all
ĠTÃ©lÃ© visions
Ġre lÃ¨vent
Ġracc our
Ġdirige ait
ĠrÃ©fug iÃ©
Ġrond elle
ar istes
Ġdiffus Ã©es
Ġsigni fiant
ĠassurÃ© ment
Ġren ouveau
An cien
Ġse ins
Ġ189 9
Ġremport ent
ĠdÃ© rob
ĠAn vers
c lÃ©
ĠSa ou
Ġph ares
Ã©r it
Ġneutr alitÃ©
Ġenvironnement ales
Ã©g ide
ĠSe a
O IR
ĠN intendo
Ġprati quÃ©
gÃ© rer
ĠTe lec
olÃ© ances
Ġplan ification
ĠV ern
An n
Ġprof itant
ĠÃ©v itÃ©
ĠA M
Ġmenac Ã©s
Ġti rant
Ġhoriz ont
Ġo x
ĠD akar
Ġcontro versÃ©e
ir ait
ass ises
Ġress er
ĠopÃ©ra teur
ĠW TA
ĠCN N
ĠJ unior
m entier
Ġb ib
Ġvis er
Ġconfond ues
pre miÃ¨re
Ġter ri
Ġfl at
ĠÃ©tr oitement
Ġhand ball
Her z
Ġv ern
entre tenir
ou ent
ĠTour isme
ĠE T
k ong
Ġcar tons
Ġlib Ã©rÃ©s
Ġb ontÃ©
ap s
ĠTer rit
ĠD ess
Ġesp Ã©rons
ĠT ricolore
ench aÃ®
2 000
Un ivers
ĠGl obe
ĠWell s
ĠCh am
ĠN DLR
Ġhum ides
l ov
ĠT ennis
ĠU N
Ã©d Ã©e
ĠrÃ©c urrent
tis seurs
Ġmascul ins
Ġdev ance
= ,
Ġautrich ienne
Ġdisp osÃ©
Ġv Ãªt
ĠTh Ã©r
ĠPors che
ĠÃ©volu ent
ĠS par
ĠS ois
Ġprogram mÃ©
Ġemprun tÃ©
Ġver y
Ġlan Ã§ant
v ingt
Ġbre v
Ġresse mbler
ĠW W
ur u
ĠD ennis
Ġl umine
Ġf oncÃ©
ĠJam ie
dÃ©m ocrates
ĠR ATP
E A
ĠenchaÃ® ne
or is
od Ã©p
ĠÃ©crit ure
v aient
ussi e
Ġrassemb lÃ©
mi eux
u tique
Ġchamp ignons
Ġconnaiss ais
tis Ã©
Ġconc itoyens
Ġconstr uc
ĠcoopÃ©ra tive
ĠM oulin
P lus
au tions
avoc ate
ĠTur cs
ch in
Ġaccess oires
ĠalgÃ©ri enne
ĠvÃ©g Ã©tation
u ait
ĠB ed
inf o
Ġl ots
ĠN ied
Ġtat ou
Ġd al
Ġbless er
Ġrester ont
ĠdÃ©f ensi
Ġp uni
Ġexist ants
ĠdÃ©p ensÃ©
Ġanalys Ã©
ĠBen oit
Aqu itaine
ĠÃ©t onnÃ©
ter ling
ĠG R
as ions
ĠirrÃ©g uli
Ġsch iste
Ġgouver ner
Ġcit Ã©e
ch ers
Ġchev aliers
Ġal co
Ġar ist
Ġs ulf
Ġcav aliers
Ġdirect es
ĠthÃ©m atiques
Ġpar ade
Ġpesti cides
z za
ant a
ĠA ward
rar ouge
Ġc oton
ari um
f ient
Ġh ow
Ġdispos ait
ĠTer ry
Ġtrib unes
ĠGer main
Ġcitoy ennetÃ©
Ã©ge p
ĠA G
Ġen vi
Ġdiplom ates
Ġl aine
ĠHez bollah
ĠLÃ© opold
ĠRos si
resse urs
Ġparall Ã¨lement
Ġprovisoire ment
ĠAr ena
Ġincert ain
m ag
Ġvoyage ur
ĠGold man
ĠVend Ã©e
Ġper mit
ĠW atch
Ġ188 5
ĠBir manie
titu Ã©
ule use
Ġindivid uels
Ã©tend ue
Ġlog is
Ġdou an
quer ie
w al
otyp es
ĠA mand
ĠAb bas
ĠPennsy lvanie
ĠSl ovaquie
ĠFor est
ĠÃ©larg i
Ġloup s
ĠF at
Ã©g ovine
tic a
ĠSp Ã©ci
Ġcompil ation
Ġfermet Ã©
Ġdiri gÃ©s
Ġcontinent ale
Ġatta chÃ©s
Ġqu an
i Phone
Ġsais is
ĠIm m
ud ence
Ġaccep table
Ġpatri moni
Ġbot tes
afric ain
ĠLang ue
un itÃ©s
Ġhospit alisÃ©
Ġann uler
200 6
ĠLea fs
ĠB ass
OcÃ© an
Ġint ensitÃ©
ĠpÃ©riph Ã©rie
Ġass ises
Ġfrag ments
qu iez
ĠFrances co
D ictionnaire
til itÃ©s
ĠM RC
Ġretrouv Ã©es
Ġsusp endue
ĠH idalgo
f re
ach et
Ġmalheure use
Ġco hÃ©sion
Ġdonne z
ĠpÃ©tro liers
Ġag grav
Ġvit rine
ĠH ydro
ĠRÃ© f
ĠMarg aret
ĠdÃ©c orÃ©
Ġfil mÃ©
ĠÃ©volu ait
ĠÃī ditions
Ġsyn agog
ĠrÃ©duction s
Ġh oll
ĠMaur icie
Ġenf lam
ĠRa oul
ĠLouv ain
Ġcent enaire
l ots
Ar ts
is sions
ĠC ours
Ġm Åĵurs
Ġliv raisons
ĠpÃ© chÃ©
ĠC ot
Ġat mosph
Ġcanc ers
ĠD od
ĠDonne z
Ġcar av
Ġiran ienne
Ġamp li
ill ac
Ġacc roÃ®tre
ĠFed er
Ġbal ade
Ġsou met
itu des
Ġbar ils
ĠK ol
V ic
Ġdess iner
Ġv ec
ĠF Ãªtes
ĠP le
ĠdÃ©g ust
Ġag re
A mb
Ġcons ortium
mÃ© lie
Ġvol ley
Ġgu Ã©rir
ĠC all
D om
Ġappar ue
ĠÃ©dit ori
m ai
Ġatta chÃ©e
Ġk illed
il o
Ġimp er
Ġc ing
Ġm ers
Ġ18 50
ĠthÃ©or ique
h Ã©licopt
ĠComp te
ert on
Ġvari ables
Ġs tigm
ĠprivilÃ©g ier
oure uses
ar aignÃ©es
ĠN ight
ĠAug ust
Î¿ Ï
Ġsal ade
ĠarchÃ© ologiques
ĠP ointe
b at
ĠÃ© phÃ©m
Ġinc roy
omp tion
Ġminor itaire
ĠLa mp
Ġk am
ion e
ĠhÃ©licopt Ã¨res
g ilets
ins pection
Ġlit re
ĠstÃ© rÃ©
Ġ189 3
Ġeffec tive
Ã» tes
ĠspÃ©ci fic
ĠÃ©p Ã©e
ĠsÃ©cher esse
Ġinfir miÃ¨res
Ġparten ariats
Ġp li
tot alitÃ©
Ġfrapp Ã©e
ĠLÃ©v esque
B ern
Ġtent ait
onn erre
Ġacquis ition
ĠR ai
Ġdispar ue
ĠInf o
ĠRob inson
ĠidÃ© ale
Ġaux ili
ass ister
eff orts
Ã©ber ge
ĠAt ta
ĠrÃ©pert ori
ĠOr lÃ©ans
d ames
ĠdÃ© ci
Ġexist antes
ĠL ens
Ġall Ã©es
U X
ĠJ orge
idÃ© o
ĠtÃ©moign Ã©
Ġv Ãªtu
Ġconfir ment
Ġb oit
ĠdÃ©mÃ©n ager
Ġsec urity
Ġtu ant
O ut
Ġ um
in former
Ġpard onner
ĠMag azine
ĠNAS A
Ġval ent
Ġca hier
Ġbox eur
ath Ã¨que
Ġsang u
oure usement
ĠdÃ©Ã§ us
Ġp ots
ĠF ifa
ce ment
amb a
ĠR ain
Ġti rent
ĠlÃ©g endes
t ag
Ġcoll Ã¨ges
Ġrele vÃ©s
Ġtermin al
Ar d
Ġ ombre
Ġcr ue
ch ar
Ġrenouvel Ã©
Ġsand wich
Ġsau tÃ©
ĠTur c
Ġtrip lÃ©
Ġperturb Ã©
artif ice
iz iÃ¨me
onn ette
ĠIn n
Ġemp orter
ĠAh mad
ĠEd die
Ġn ier
Ġfou tre
ĠsÃ©paratis tes
ĠFinanci al
Ġpein dre
ĠG RC
ĠNar bonne
A prÃ¨s
ĠT si
ĠP ape
ĠÃ©lect ro
Ġbra ce
Herz Ã©govine
ĠKe ith
Ġparti tion
Ġbrut ale
C omme
ĠIn ves
ul aritÃ©
Ġb ann
ĠA rab
ĠT ag
Ġfinal istes
ĠÃ¢ ges
par ents
Ġv ignes
ĠN an
erg ies
Ġsouff rait
vi ons
Ġg osse
Ġvari Ã©s
Ġrecue illis
ĠSur vey
ĠMÃ©l anie
Ġtran chÃ©
ĠÃ©chapp e
ĠMoh am
Ġmus cles
y ing
Ġl or
Ġmul tic
ano Ã¯
Ġv Ã©nÃ©zuÃ©li
ĠSec ret
Ġre lax
attend ent
ĠPet e
Ġberce au
Ġterr estres
ad mir
Ġn oces
Ġimag inaire
ĠCare y
f emme
Ġc rav
ĠÃ©tab l
enti eux
ĠH ub
ĠM ug
ĠHum an
shir t
ĠRemp arts
agir ait
ĠElect ric
v oit
Ġ( ),
roch ait
Ġn au
Ġmonth s
ĠDum ont
tif ier
ĠpÃ¨s ent
Ã©pous er
P er
land o
Ġport ables
Ġanim ale
Ġs aine
Ġsa x
hel m
Ġrestre int
ĠSte v
Ġann ulÃ©e
ĠpÃ©n ible
Ġt own
Ġsembler ait
Ġcrist all
ĠAu drey
Ġnot ables
Ġ186 7
Ġex er
ĠspÃ©ci alisÃ©es
Ġcomport ant
ĠSuÃ©d ois
ĠP ow
ĠprÃ©lÃ¨ vement
Ġrecr ues
oc ution
ĠG ian
ĠCh uck
Ġdu es
Ġab Ã®
ĠTourn ai
th an
al er
Ġbapt Ãªme
Ġcomb inÃ©
Ġdiffus Ã©s
te ction
ĠmÃ©can iques
ĠKaz akh
appar aÃ®t
ĠCN RS
Ġclar tÃ©
Mon sieur
Ġrac istes
ĠS axe
Ġdess inÃ©
Ġchronique ur
J M
g res
akespe are
g ouvernement
' ),
Ġfr aud
Ġchemin Ã©e
y ton
en tis
ĠChar bonneau
ĠHug ues
Ġassembl Ã©es
Ġpl aint
Ġfrag iles
ĠY o
Ġvieill ard
ess or
ĠrÃ©clam ant
Ġinflu ences
ĠdÃ©mant Ã¨lement
Ã©r indi
Ġperd ait
ĠCons tr
Ġsil encieux
Ġann uelles
Ġpar aissent
ĠOuelle t
Ġprom ets
Ġpar ue
ĠJ ul
ĠL ili
Ġacad Ã©mi
Ġrev al
A ction
ĠprÃ©s ervation
alle z
affront ent
ĠSav erne
ac s
ĠF itz
ĠÃ©le veurs
Ġpassionn Ã©s
ou rer
f aite
Ġtr il
ur ale
fin i
ĠÃ©p ais
Ġjal oux
Ġju gÃ©es
Ġimpressionn ante
onne z
n om
Ġchar mante
ĠsÃ©v Ã¨rement
ĠdÃ© pe
ĠNe il
ĠdÃ©voil Ã©e
ĠÃ©ch anger
Ġrenv oi
d ae
ĠprÃ©v oient
Ġexploit er
Ġ Ġ
Ġp ige
Ġbombarde ment
ĠIra q
ĠE le
aill ons
00 00
ĠprÃ©jug Ã©s
H ug
rit Ã©s
Ġret ours
ĠÃĬ tre
l ins
Ġm ouch
m ail
ĠGri ff
ĠRÃ© mi
imb ab
Ġnom bres
Ġob tiennent
fam ille
ĠE rik
in dic
Ġinf Ã©rieurs
ĠW au
Ġaut obi
Ġplate aux
ĠVoy ons
entraÃ® ne
Ġsupp oser
ar itÃ©s
Ġdomin ic
Ġintellectu els
ĠJane iro
orb onne
Ġbon jour
An dre
Ġpiv ot
ĠS ont
cip lin
ĠrÃ©pli quÃ©
ĠAlph onse
Ġhos tiles
Ġtox iques
Ġviv aient
av oue
Ġsub issent
imp lication
ĠBangl adesh
ĠderniÃ¨re ment
intÃ© ressÃ©
ke e
Ġtrouve z
Ġcont ag
ĠN aj
ĠsÃ©qu ences
Ġc ac
ch al
cl ub
ĠÃ©vacu Ã©s
B L
ĠEnter tainment
Ġcoin cÃ©
Ġgalax ies
ĠrÃ©alis atrice
ĠdiplÃ´ mÃ©s
raÃ® ch
hum oriste
Ġendomm agÃ©
Ġtrans vers
ĠSergue Ã¯
ĠrÃ©comp enses
ĠV ale
ate m
ĠK re
Ġincap ables
it res
Ġex istÃ©
ĠAc ade
ĠTe mps
is ance
Ġpros titution
... ,
ĠCis jordanie
Ġpropos ait
al uminium
Ġfin ie
ĠfraÃ® che
Ġgl aces
vid ence
Ġjur Ã©s
ĠdÃ©pos Ã©s
ĠÃ©me utes
Ġmar Ã©e
Ġtravail liste
carb ures
as co
et ter
Ġk urdes
Ġa ire
tim ore
l ong
Ġanth rop
ĠrÃ©f lÃ©chi
Ġmont s
expl osi
Ġlux emb
v ar
Ġv or
Ġfer ons
Ġdynam isme
Ġaugment ent
Ġar bor
Ġfor cÃ©s
Ġalg orith
di le
ci us
ĠÃ©colog iste
Ġreg agner
Ã©vÃ© nements
Ã©t ang
Ġat outs
Ġenc aissÃ©
Ġobs cur
Ġvis Ã©s
Ġni Ã¨ce
Ġrapport ent
Ġpaie ments
Ġaliment er
ĠZ ach
Ġg oing
Ġ Ä
ĠAu paravant
ĠJord anie
Ġro cher
ĠAlbert o
p ays
ĠE mb
ĠK oh
Ġlacry m
oul Ã©s
un der
ch at
Ġmain tes
Ġren ouer
Ġprogram mÃ©e
ĠprÃ© le
Ġ188 1
ĠMacÃ©d oine
Ġconvainc us
Ġp ond
ĠBes anÃ§on
Ġpar itÃ©
Ġchancel ier
ĠTy ler
ĠAnd roid
Ġphilosoph ique
i pe
Ġchev et
Ġarra cher
Ġmonop ole
terr or
ib us
Ġacc Ã¨de
Ġbl ock
Ġamb igu
Ġmil ices
Ġdirect oire
ĠLeon ardo
Ġcre us
Ġempris onnÃ©
Ġam endes
Ġ17 90
Ġmigr atoire
Ġs que
ĠJ our
Ġattribu Ã©s
id ou
asse ur
ĠCor b
ĠdÃ© rap
Ġeconom ic
Ġaut hentique
ĠFab ius
ĠIn dien
ĠCar n
ui rait
ok s
Ġpoin tÃ©
Ġrac es
inter view
Ġn atif
Ġmar se
Ġanim ateur
end ing
ĠB ald
qui ers
escal ade
Ġconf Ã©d
ĠCarcass onne
Ġbr uits
Ġsuff i
Ġcy ril
ĠD G
ĠAra bes
ĠP ur
ĠB is
Ġinculp Ã©
adop ter
Ġeng endre
ĠBer nier
Ġrur ales
Ġsa vant
Ġrap iditÃ©
Ġsymph onique
ait re
" -"
Ñ ģ
ull ah
Ar gentin
P N
adi er
Ġl and
lÃ© tico
Ġentre tient
Ġrach et
op Ã©rations
ist ante
ĠN um
d Ã©b
Ġb Ã»
Ġattend s
Ġca me
f our
Ġmondi alisation
Ġmal in
ĠR Ã©v
Ġner fs
ri mÃ©
Ġabord Ã©
Ġass oup
ra teur
ĠJe unesse
Ġv Ã´tre
H aute
ĠG rav
ĠViv endi
rois sement
Ġcol oss
Ġgaz on
ĠJ ardin
ĠÃ©v idente
ĠLy onnais
Ġpropor tions
Ġconf ession
ĠrÃ©habil itation
Ġdiam ant
ang ulaire
ker que
ĠMe use
ĠT able
Ġsi Ã©ge
ĠSu pp
ĠAr mstrong
Ã©mi tisme
Ġsoup er
in ets
Ġcriti quer
ĠlÃ©gisl ature
in eux
Ġoblig atoires
pre mier
ab el
D M
Ġexcessi ve
Ġregard ent
ĠGuy ane
ĠS R
Ġinf os
p rov
ĠtrÃ©s orerie
Ġ179 2
ĠDe mande
ĠtrÃ©s ors
ĠL ois
Ã©d ents
s ource
land s
ĠN ul
ĠBeau lieu
Ã¡ s
ĠVal en
t est
Ġcenti mes
Ġcaval ier
Ġro ches
Ġtex tile
Mari time
r h
Ġattend aient
is a
ĠrÃ©alis me
ĠCr os
Ġarra chÃ©
c ron
Ġbulle tins
ĠmatÃ©ri au
ĠHar vard
Ġpl aines
ĠMos elle
Ġbi ologie
Py rÃ©nÃ©es
Ġd resser
ul teur
imag in
ick s
Air bus
Ġgri ff
Ġliv rÃ©s
ĠH old
Ġqualif iant
Ġly cÃ©es
Ġinqui Ã©tant
ĠdÃ©couv rent
ĠL itu
Ġabs urde
aÃ¯ dj
ĠC ay
Ġindispens ables
ĠT ampa
Ġloc alitÃ©s
Ġterrib les
Ġcon gÃ©s
Ġaccus ent
Ġpar v
Ġsa ys
Ġg Ã¨nes
Ġ186 3
? --
ĠT aÃ¯wan
Ġs elle
ra di
ĠBr ass
ine au
ĠdÃ©c ry
Ġcapt urÃ©
Ġcoord in
Ġsacri fices
Ġsoigne usement
ĠS ex
ous ki
ĠPar ent
ĠprÃ©cis ions
M ade
inter p
Ġinterpr Ã©tÃ©e
ain issement
Ġaccueill is
ĠintÃ© resse
Ġv igne
ĠÃ©c osyst
Ġcyril lique
Ec ole
Ġch assÃ©
ĠEl li
Ġprob abilitÃ©
ĠAss ad
lec tif
ĠBr yan
ĠEc outez
ĠthÃ©m atique
ĠBrÃ©sil ien
ĠCin Ã©ma
C roix
mar ins
ĠhÃ©r itÃ©
Ġlanc ers
Is Ã¨re
Ġcollabor ateur
Ġa h
utilis ateur
Ġabs ents
Ġacquis itions
in iÃ¨re
ĠDi able
Ġman oir
P ad
ĠÃ©lÃ© ph
Ġ17 71
z Ã©
Ġall ure
olog iquement
ge on
Ġtunis ien
enc ore
Ġsupporte urs
ĠConc ours
Ġf ureur
Ġfi ancÃ©e
at us
Ġadministra teurs
ĠMand ela
un ami
pe ace
ĠBas ket
l ow
Ġl onge
sh ip
ĠNetanyah u
ĠA TP
ĠCr oss
ĠN uit
Ġ186 2
ĠperpÃ©tu itÃ©
Ġdr one
Ġla ve
ch ron
d ale
Ġs ultan
ĠPol onais
ti lis
ĠdÃ©bat tre
Ġentrepr end
se x
ĠA qu
Ġsorti t
Ġchar p
Ġoc Ã©ans
Ġlois ir
ĠDen ise
Ġ @
ĠG off
ak en
ĠbrÃ» le
Ġt ord
Ġore ille
N ation
Ġmin uti
Ġg ab
ĠTelec om
h umeur
ĠFro ome
ĠC G
ĠtÃ©lÃ©ph onie
Oh io
Ġmas ter
Ġpour rons
Ġg ib
ins urrection
Ġcr uel
Ġreg ain
Ġvesti aires
Ġch uter
ingÃ©n ierie
e ch
Ã©ti quette
Ġisol Ã©s
en aires
ĠIslam ic
ĠdÃ©liv rÃ©
H Ã©l
Ġarrond issements
Ġgrimp Ã©
Ġsuccessi fs
ĠMar tel
ĠdÃ©m olition
lav ie
ĠSch a
Ġpropag ation
ĠR enseignements
Ġpsych ologue
ĠG ames
ĠÃ©c opÃ©
Ġre vis
is olement
ache ver
Ġliby en
Ġfou dre
Ġtab ou
ĠrÃ©pond ait
ag ira
g ow
Ġvi endront
ĠmÃ©tal lique
Ġenvironnement al
ĠFrank lin
ĠM ondes
Ġtr onc
ĠA L
ĠdÃ©te ction
Ġaliment ation
Ġz oo
roch age
Ġad mettre
Ġlamp e
Ġcombat tu
Ġclassi fication
Ġliv ret
ĠrÃ©s iste
ter nes
acqu Ã©rir
Ġd us
ri o
aff e
g est
ĠH ain
ĠAdam s
Ġent rain
ĠKab oul
ĠV ain
Ã¨ cle
Ã©t onne
ĠprÃ©dÃ©c esseurs
ĠSec rÃ©taire
ĠCh allenge
B o
Ġp orti
Ġp ortier
aud s
Ġpes ant
Ġpr ag
el ier
enn a
Ġn oix
Ġh Ã©las
Ġ13 5
Ġmagni fiques
ab olition
Ġlaiss era
ach im
nest y
in ette
ĠSh akespeare
ĠB ris
Ġscand ales
Ġaim es
ĠdÃ©clar ent
ĠantÃ©ri eure
h ommage
ĠÃ©c arts
Ġsoci ologue
Ġop tÃ©
Ġinterpell Ã©s
Ġrep Ã©rer
Ġti mbre
ĠC lÃ©
Ġentre tiens
ĠrÃ©ve illÃ©
Ġc auc
Ġcon formitÃ©
ĠTch ad
ĠcrÃ© neau
Ġrall ye
ĠprÃ©c autions
Ġache min
Ġban niÃ¨re
erb aÃ¯dj
Ġliv rÃ©e
inter venir
Ġl ouÃ©
con f
Ġcop ropri
Ġlig ues
ĠS uis
Ð º
Ġpos ture
f ant
ĠChamp lain
ĠE va
ĠDel phine
Ġneu fs
ĠTs onga
Ġcontre b
ok u
j ette
ne aux
Ġcontinu ait
ĠLap ointe
Ġrev ivre
Ġheur ts
Ġtrott oir
ĠD mit
Ġt ut
ĠnorvÃ©g ien
+ ,
Ġ2 30
Ġinfir miÃ¨re
Ġcatastroph ique
Ġdev ants
Ġbass ins
re ra
Ġcomp orter
Ġcorp ore
aÃ® nÃ©
Ġcour amment
Ġfabri quÃ©s
outi mi
ĠB ourd
ĠLac roix
ĠÃ©n um
v ation
Ess onne
ĠRich ards
Ġpar li
ban k
Ġgrec ques
Ġgr ains
Ġass ume
Ġimag ination
Ġnot aire
Ġp olÃ©
Ġsout enus
ĠQu int
Ġsout enant
ĠMichel in
ĠdÃ©s er
Ġfrustr ation
Ġas tron
Ġcroy ances
ĠrÃ© alitÃ©s
Ġatt ribuer
En tre
ĠdÃ©tra cteurs
Ġcharg er
Ã©r ault
ĠMoz art
Ã©cl ar
ta h
Ġhi pp
Ġc rie
Ġmin iÃ¨re
ĠBal timore
Ġindemn itÃ©s
Ġch aire
ĠGran by
Ġpres crit
ri on
Ġch Ã¢teaux
isse urs
ĠGal ax
Ġtravers ant
tu el
Ġser ve
Ġchance ux
Ġfonction nent
enti l
Ġdemande z
Ġ" ;
ĠPres que
Ġnul lement
Ġpass ants
Ġcrit Ã¨re
Ġ186 4
ĠMes sieurs
ĠLÃ© o
kel y
ĠH aye
ĠQue ens
Ġc iment
el ais
ĠprÃ©sid Ã©e
oun a
oth y
Ġhomosex uel
Ġ188 6
ĠrÃª vÃ©
Ġconf is
Ġinflu enc
ĠrÃ©pand ue
ĠFried rich
ĠprÃ© cieuse
Ġiniti Ã©
Ġnouv ellement
Ġaime z
Ġdocument aires
Ġfonde ment
Ġlant erne
Ġ189 4
Ġtit ular
Ġb ague
Ġasc ension
Ġg ram
lec tron
Ġacc rochÃ©
Ã©p al
ocal yp
F O
Ġgliss Ã©
hum ain
Ġenvironnement aux
t ous
ĠO g
Ġirak ien
ĠI N
ĠG Ãªnes
ĠdÃ©g Ã©n
Ġm asses
Ġaccus ant
ĠapprÃ© cie
t rop
Esp ace
Ġorigin aux
ĠarchÃ© ologique
Ġf ardeau
Ġval able
P al
en lever
ĠÂ ·
Ġbl ack
Ġindig Ã¨nes
ĠfrÃ©qu entes
ĠNet work
Ġoffici al
ĠChap elle
ĠdÃ©liv rer
Ġcontr aints
ĠH onda
ĠK rist
omb rables
ĠLefe bvre
Ch amp
ĠJ as
Ġentend ait
Ġtent era
ĠFuk ushima
y ph
ĠCh ron
ĠprÃ©t endu
Ġaur as
Ġloin tain
ĠÃ©vo quÃ©e
ĠC ase
Ġmal ad
enc re
ĠÃī m
ali an
Ġne ar
Ġhabitu elle
Ġryth mes
g art
Ġpromen er
ĠFlor ent
Ġs ci
Ġvis uel
d ine
ĠBl ake
ĠAp oll
Ġ189 2
Ġpar lons
Ġcontam ination
or ant
Ġpas t
ĠDi pl
Ġmen ait
An gl
ĠmÃª le
Ġmatern itÃ©
Ġimpos Ã©s
ĠBra h
Ġaffich ent
th a
ĠdÃ©g oÃ»t
ĠLight ning
he urs
Ġgend arme
O l
ĠH om
ĠmystÃ©rie use
ĠAl onso
Ġsupp orts
Ġsp i
Ġdesqu elles
ĠdÃ©m arrage
Ġassi Ã©g
r ales
ĠF ul
Ġ6 50
exp lication
Ġtent ation
Ġper quisition
Ġrepar ti
Ġh ol
Ġempre inte
Ġbr uy
erb er
ĠM oliÃ¨re
Ġch rom
Ġpap illon
ĠL anc
ĠGr oss
ik o
ĠTur k
Ġconfond re
Am our
li ps
Ġinf il
Ġdomic ili
Ġrel atifs
ĠRon ald
Ġcontest Ã©e
HÃ´ pital
Ġgagn ante
ĠA jaccio
Ġexc use
on Ã©s
Ġiv oi
oub arak
Ġliquid itÃ©s
Ġlut tes
Ġc aill
Ġprofes sions
ĠC ON
Ġm ouv
Ġals aci
qu iste
ten aient
Ġco tÃ©
Ġn an
Ġ18 15
Ġaid Ã©s
ĠS oir
ĠdÃ©m Ã©nagement
ĠindÃ© termin
r ol
Ġbou quet
ul sions
ĠÃ© li
ĠLib ertÃ©
ĠIsra el
Ġr ail
ak ers
Ġmar re
oot h
vi ation
ĠGuardi an
ĠMontrÃ©al ais
Ġfant Ã´mes
Ġcoloni ale
Ġpron on
ati cien
Ġrad ars
Ġaccord Ã©s
Ġsuccessi ves
Ġroch ers
Ġop Ã©rer
Ġentre tenir
ord onnance
Ġoeu fs
Ġrac iste
ĠRe b
ĠrÃ©perc ussions
Ġbas Ã©s
ind a
ed er
ĠgÃ©n Ã©rÃ©
Ġdev iner
Ġin g
ĠdÃ©barque ment
mis me
OS DH
Ġpress enti
V ol
An ton
om ane
ĠsÃ©cur iser
Ġprend rait
ĠZ o
Ġacc ru
An vers
ĠTrib une
Ġprob lÃ©matiques
Ġb ob
Ġprof ils
Ġdat ent
ag Ã¨res
Ġsou lÃ¨vement
Ġprotest ations
inst ance
Ġr un
uss els
corÃ© enne
ay ez
ĠCon se
Ġremont ant
Ġaccep tÃ©e
ĠJ oc
acc Ã©lÃ©rer
ĠL it
ĠÃ©tabli es
ĠÃ©cl ate
Ġcomp lais
Ã©le ctions
ĠdÃ©fi ance
tr aient
pr as
Ñ Ĥ
ĠVI DÃī
out ch
Ġcatastroph es
ut able
ĠC afÃ©
ĠK or
Ġprotest ants
Ġs ida
Ġinuti les
ur anium
Ġser veur
Ġ18 40
ert o
Ġver ront
Ġbet ter
Ġprop ice
Ġpercu tÃ©
ĠM eur
v ues
Ġouv rent
ĠprÃ©f ect
ĠS erie
ĠA aron
Ġven deurs
Ġrece vait
Ġarbit re
ĠLe ip
H oll
di g
ĠrÃ©pand u
extra ction
ĠThib ault
ĠCheval ier
ĠS ul
Ġmodern itÃ©
Ġan arch
Ġcalcul Ã©
ouv rez
C omp
ĠIndi an
n ale
Ġprend ront
it at
Ġcomm et
Ari zona
and ra
og s
Ġaff icher
Ġpropos era
Ġcoul oirs
Ġremerci Ã©
y ad
as ed
at terrissage
ĠB ron
ĠCas ino
ĠprÃ©voy ant
h ygiÃ¨ne
Ã§ ante
d ites
Ġcar riÃ¨res
Ġres cap
ang oisse
ĠC ry
ĠBlo omberg
Ġval ider
am ar
h Ã©ros
Ġrest aient
ĠWest ern
Ġloc alisation
or um
" ",
ĠI ron
ĠA mis
ĠMar ti
Ġpromet tant
histor ique
Ġphotograph es
Ġcro yant
ĠRetr ouvez
Ġson n
Ġblo quÃ©s
ĠRe in
ĠPe p
Ġmassi fs
Ġco fondateur
Ġver rez
ou ler
Ġd oyen
Ġent Ã©r
er y
ĠEn gl
isl as
) ...
Ġade ptes
Ġfon te
Ġpr Ã´ne
ĠP am
Ġ187 8
Ġr ight
Ġjal ousie
Ġrec teur
Ġacc ab
ĠPent agone
ĠAu vergne
r onom
v oix
ĠT roph
ĠK un
Is lam
Ġbrut alement
Ġar g
Ġchaud s
Ġc ray
ĠB ack
"... ,
Ġvign oble
ĠRim ouski
ĠDrum mond
Ġcol lier
Ġfant as
ti ces
ĠT Ã©m
Ġb roch
Ġtour b
ĠEm ir
li cite
ĠF an
Ġtoi lette
ĠN az
Ã©l an
Ġk now
Ġexpl orer
Ġd ingue
ĠP aix
ch s
Ġsovi Ã©tiques
Ġgrat uits
Ġsuiv ait
ĠMoss oul
Ġindi quait
ĠPÃ©l adeau
ign ac
ĠprÃ©f Ã©rÃ©e
A ur
Ġsatisfait s
AD S
ĠRussi an
ĠlimitÃ© es
Ġth en
Ġpres ident
Ġacad Ã©mique
ĠdÃ©clar ait
ĠbÃ©t ail
Ġdiam ants
Ġpun ir
Ġconcep ts
T M
dic al
Ġinf raction
am Ã©n
Ġrapp orteur
ĠGi use
Ï ģ
Ġacc umul
Ġsoumis es
ĠÃ© min
Ġbl Ã¢
Ġten eur
ov ici
ĠD ark
Ġfi able
Ġvieill issement
in jus
ĠN ak
200 5
ĠOff ice
ĠV ich
ĠrÃ©affir mÃ©
iv a
Ġapport ent
I TA
che d
c amp
ĠKar en
Ġne g
Ġref roid
ĠCris tiano
Ġcaf Ã©s
Ġamor cÃ©
man uelle
ĠB az
Ġ188 4
Ġrou g
inter dire
Ġs ag
Ġmal fai
In f
Ã©n ique
Ġqualif iÃ©es
ol ine
ĠH ockey
ĠF le
ĠGreen peace
ĠS oc
Ġr an
ES CO
ĠF M
Ġense ignements
ĠA rabie
Ġan orm
Ġaur ions
or rag
el and
Ġoblig Ã©e
Ġempl acement
Ġsh Ã©rif
ĠdÃ©termin ant
m ains
Ġac ous
ris me
ĠS ed
ap olis
Ã©g antic
orte z
ĠcÃ©lib ataire
Ġfond re
pr in
Ġvar ier
ĠrÃ© Ã©lection
Ġrejet er
ĠastÃ©roÃ¯ des
ĠÃ©m ig
Ġ186 1
Ġratta chÃ©
tu me
Ġinv al
Ġcoord onn
Ã¼ ck
Ġ188 8
Ġv and
ĠtraÃ® ner
ĠPrÃ©s ent
Ġtermin ent
incl ine
ig ence
Ġad ded
Ġle va
li Ã¨re
Ġf oul
aff ec
Ġsub mer
ĠdÃ©riv Ã©
U ruguay
Ġhybri de
Ġritu el
Ã©v idence
ĠPa olo
Ġre manie
ĠR ER
ĠChar ente
ĠCaz eneuve
Ġcommand Ã©e
Ġp lier
AN C
as ing
ĠR oute
ĠrÃ©sid ant
ĠM og
Ġassoci Ã©es
Ġcomp anies
inc ent
ĠExpl orer
ĠD R
Ġdistrict s
ĠmathÃ©m atique
ĠDe an
Ġfr onde
Ġanticip Ã©es
P O
Ä ĥ
ĠdÃ©t roit
ad ju
ĠrÃ©par ties
Ø §
Ġchi ite
uss y
r ants
Ġmobil isÃ©
ĠamÃ©n agements
uni forme
ĠÃ©quip age
ĠAut our
ouch ure
ĠCl ara
Ġrem Ã¨de
ge m
au gh
emp are
Ġrac ine
Ġr ames
Ġnour ri
ĠU nies
Ġpertin ence
ra mide
Ġence intes
Av ignon
Ġfr audes
ins ki
Ġper cer
pp es
ĠMath ilde
Ġconserv Ã©e
ai des
Ġv ital
ĠSil vio
Ġhold ing
ĠdÃ©pass ent
Ġpharmace utique
ĠM its
ger ie
Ġenfer mÃ©
Af ric
Ġperd ues
oppos ant
Ġre desc
Ġsacri fier
Ġraf raÃ®ch
Ġc roch
Ġeffic acement
Ġespagn oles
v or
ĠF aute
Ġcollab orer
el Ã©e
an aise
Ġfer aient
Ġcompas sion
ĠA ix
Ġam assÃ©
Ġc ount
s or
ign ent
Ġins titut
ar ter
are mment
Ġdisc rÃ¨te
ĠG ant
ĠThÃ©r Ã¨se
Ġc uisse
Ġmari juana
ct on
Ġcontourn er
ĠChic outimi
Ġcontra diction
Ġemp ereur
Ġsur venus
ĠMor si
Ġla pin
atta che
accep te
ĠB rÃ©
Ġremis es
Ã©conom ique
ĠMo on
ĠW y
termin ation
Ġportug aise
Ġfonction nÃ©
ĠDoh a
Ġrece vant
s our
ĠPut ain
Ġkam ik
mÃ©n ie
Ġsoph isti
ĠB ai
ĠdÃ©f ier
Ġa dieu
ges tion
urb an
Ġ189 1
Ġcont enait
Ġprogress iste
ĠagrÃ© ment
ĠÃ©vac uÃ©
Ġparticip ations
Ġmammi fÃ¨res
ĠdÃ© gr
Ġst agi
ĠJ SK
ĠDan y
ĠS ard
Ġle ft
Ġin jec
ĠWau quiez
l ois
ĠP ois
Ġcr oir
Ġvis Ã©e
agn Ã©
Ãª ter
ĠV oix
Ġexcep tionnelles
Ġn erve
ĠK ay
Ġ187 6
Ġmagn Ã©tique
Ġe h
ĠÃ©vac uer
Ġinter venu
ou cher
ous ain
ĠManit oba
Ġy our
Ġremp lis
IS S
Ġatten tif
ĠdÃ©sign Ã©e
Bl anc
ĠgÃ©n Ã¨re
arc tique
Ġintellig ents
Ġalsa cien
ĠrÃ©s istÃ©
Ġcorp or
ĠGu Ã©
ĠmÃ©r itent
Ġb osse
Ġob tint
ĠÃ İle
Ġrass ure
Ġfau bourg
T r
Ġple ines
ĠC FA
olit ain
ĠKur t
ĠApr il
Ġb ourses
ex tinction
ĠAb b
ĠmÃ©diÃ©v ale
ĠI mage
Ġhyd rau
Ã¼ h
ĠPanth ers
urs t
ĠdÃ©p ist
Ġmai gre
ĠBar rette
Ġcerc les
Ġaffir m
ĠdÃ©tourn er
Ġcons istant
ĠCl aud
Ġs ill
ĠSch we
Ġchang era
ĠT rÃ©
ĠN ow
Ġnum Ã©r
ĠdÃ© lÃ©g
Ġmodi fiÃ©e
Ġcog ni
tinent al
Ġaut oc
ĠSom alie
Ġ q
Ġrecycl age
Ġdev ises
Ġb oth
Ġlondon ien
Ġdys fonction
Ġfl ott
ĠGu adel
aut obus
ĠLÃ©on ard
i ante
Ġpl antÃ©
pp ed
ĠconÃ§ us
ĠPal ace
obscur itÃ©
Ġin cess
ĠJ oli
Ġhandicap Ã©s
ĠrÃ©par ations
av ille
Ġex pect
Ġst ages
ĠpÃ©ri ple
Ġ188 2
Ġbon di
Ġbal con
ĠHaz ard
Ï Ħ
om et
Ġcoup Ã©e
ĠMade moiselle
ĠCh in
Ġred oub
ĠP od
Ġcockt ail
ĠS N
ĠB am
ĠdÃ©v ouement
Ġend or
EL V
id is
E D
ĠÃ©cri vent
el ins
Ġcrois Ã©e
ĠCon tin
ĠrÃ©tab li
Ġ20 25
Ġ10 2
Ġsupp ressions
Ġreport ers
Ġinterrog ations
St ar
L i
ĠB od
ĠKur d
eff or
ĠÃ©le ver
ra yant
ĠHerb ert
Ã©d on
Ġpat ronne
Ġ186 5
Ġag ressÃ©
Ġsh ares
Ġg ent
ĠD C
Ġmit raille
ĠS omme
Ġinves tit
Ġrou tine
Ġblanchi ment
ĠTch Ã¨que
ĠT iger
ĠR ess
o tiques
Ġris quÃ©
ograph ies
ĠGiuse ppe
Ġcrois er
Ġheur tÃ©
Ġinterrog Ã©es
Ġexp ressions
Ġinter venue
ai gu
Ġsurc roÃ®t
Ġr os
Ġpoli cy
ĠÃ©limin ation
Ġpsychiatri que
ĠR esp
q a
acc um
ĠColumb ia
20 20
Ġk n
ori o
Austral ien
Ġdispon ibilitÃ©
ĠRich elieu
ĠT ir
te ure
al ia
ĠB ret
Ġcl own
ĠH ern
Ġprojet Ã©
Ġpun k
ĠÃ©pous er
Ġemmen er
Ġvis a
Ġcoord onnÃ©es
ar u
Ġencour agÃ©
Ġperturb ations
c ette
os ent
ĠIn des
asc ension
Ġdans es
Ġt asse
Ġg rÃ©v
dr oite
ĠGu il
Ġla me
Ġang les
ĠlÃ©g Ã¨res
Ġrempl it
Ġsoule ver
ĠrelÃ©gu Ã©
Ġfil iÃ¨res
ĠBer ry
Ġpl Ã©b
Ġprote cteur
k on
ĠpossÃ©d ant
Ġeng ins
Ġhistor iquement
ĠAcade my
Ġcouv rant
e us
Ġex iger
Ġprov ocation
in vite
ĠMap le
ĠÃ Ĺ
Ġp aient
U l
Ġred ist
ĠM O
enn ant
ĠprÃ©cÃ©d ant
te il
ĠBr as
ĠÃ©p ouvant
ĠM ang
Ã©les te
Com tÃ©
ĠJup iter
Ġmot or
Ġr anc
Ġvall Ã©es
ĠBenz ema
ro e
acc roÃ®tre
ĠW ard
Ġb ulg
ri am
Ġmotiv Ã©
Ġren Ã©g
ĠE iff
Ġbr ouillard
ĠY u
int rigue
artic les
Ġcapit alisme
ĠG PS
ĠQu entin
Ġreport ages
ar isÃ©
Ġdictionn aire
Ġprocure urs
HÃ©l Ã¨ne
abord er
ĠrÃ©serv Ã©s
Ġpu te
and aise
Ġvacc ination
Ġappar ent
p orte
Ġgaranti t
ĠBuff alo
Ġfrapp ant
is hi
Ġn ap
Ġmil es
zheim er
ĠB ot
ĠinÃ©v itable
Ġamus ant
og Ã©e
Ġch en
Ġpsychi atre
Ġr ondes
ĠZ id
Ġaband onnÃ©s
mps on
Ġsoud ainement
ĠDani elle
ĠC oul
ĠH erm
ĠV ice
Ġun iques
ĠindÃ©pendan tistes
N os
Ġarbit res
Ġins pire
ing amp
Ġson ores
ĠRob erts
Ġo wn
Ġmin eure
ai ment
Ġtra ct
Ġtravers ent
less es
Ġimpressionn Ã©
Ã¨g ent
ref nec
Ġadmi rer
Ġpeupl Ã©e
ĠTroy es
Ġp Ã©ti
Ġper quisitions
ten de
c ation
E ric
ĠM oubarak
n ois
AS H
Ġcollec tives
Ġb agu
ĠM ise
Ġst op
Ġin times
Ġstand s
Ġcomposi teurs
ĠrÃ©c urr
Ġsouhait ons
Ãīc onomie
Ġn ach
Ã¨ des
Ġcons ommÃ©
Ġj ungle
Ġap ais
Ġbr in
ĠprotÃ© gÃ©es
Ġcr at
mi x
g era
Ġfra ction
Ġorient ations
cessi bilitÃ©
ĠKir k
ĠpolÃ© miques
Ġch Ãªne
ĠPe ople
ĠprÃ©con ise
ĠintÃ©ress antes
Ġrh Ã©t
Ġ ~
tel la
ĠW ings
ai mait
pr om
Am Ã©ricains
ys on
ĠPic asso
Ġpoursuiv ra
ars on
B re
fin ance
Ġgra du
ĠamÃ©n agÃ©
t us
Ġw on
ĠC opp
Ġintrod uction
Ġph y
ĠCH U
Ġins upport
Ġorgan e
or Ã©s
Ġimm atric
ĠG aul
H P
ĠH ome
Ġvend ent
itz er
Ġcrist al
ĠindÃ©pendant es
Pre mier
Ġpour vu
Ġconc ord
ĠspÃ©c ul
Ã©ric aines
Ġclass Ã©es
Ġcotis ation
ĠBrit ain
ĠF erg
Ġst ri
Ġsupermar chÃ©
Es prit
ess er
Ġproc Ã¨de
Ġnu ances
Ġcaus Ã©s
Ġescal ier
Ġ187 4
ĠBre ton
Ã©lÃ© g
Ġfores tiÃ¨re
ĠNor mand
Ġcollab orÃ©
au dition
iss antes
B ien
Ġviv ons
j ad
Ġressorti r
H L
ab ulaire
is chen
ire z
Ġun ilat
Ġdat Ã©e
ic z
ti ez
Ġre mÃ©di
ouver neur
ĠAl g
Ġcan ap
Ġcerc ueil
Ġatte ind
Ġrec rÃ©
[...]
